#include "model_data.h"

const unsigned char esp32s3_ripple_classifier_tflite[] = {
  0x20, 0x00, 0x00, 0x00, 0x54, 0x46, 0x4C, 0x33, 0x00, 0x00, 0x00, 0x00,
  0x14, 0x00, 0x20, 0x00, 0x1C, 0x00, 0x18, 0x00, 0x14, 0x00, 0x10, 0x00,
  0x0C, 0x00, 0x00, 0x00, 0x08, 0x00, 0x04, 0x00, 0x14, 0x00, 0x00, 0x00,
  0x1C, 0x00, 0x00, 0x00, 0x8C, 0x00, 0x00, 0x00, 0xE4, 0x00, 0x00, 0x00,
  0x04, 0x05, 0x00, 0x00, 0x14, 0x05, 0x00, 0x00, 0x78, 0x10, 0x00, 0x00,
  0x03, 0x00, 0x00, 0x00, 0x01, 0x00, 0x00, 0x00, 0x10, 0x00, 0x00, 0x00,
  0x00, 0x00, 0x0A, 0x00, 0x10, 0x00, 0x0C, 0x00, 0x08, 0x00, 0x04, 0x00,
  0x0A, 0x00, 0x00, 0x00, 0x0C, 0x00, 0x00, 0x00, 0x1C, 0x00, 0x00, 0x00,
  0x3C, 0x00, 0x00, 0x00, 0x0F, 0x00, 0x00, 0x00, 0x73, 0x65, 0x72, 0x76,
  0x69, 0x6E, 0x67, 0x5F, 0x64, 0x65, 0x66, 0x61, 0x75, 0x6C, 0x74, 0x00,
  0x01, 0x00, 0x00, 0x00, 0x04, 0x00, 0x00, 0x00, 0x9C, 0xFF, 0xFF, 0xFF,
  0x0A, 0x00, 0x00, 0x00, 0x04, 0x00, 0x00, 0x00, 0x08, 0x00, 0x00, 0x00,
  0x6F, 0x75, 0x74, 0x70, 0x75, 0x74, 0x5F, 0x30, 0x00, 0x00, 0x00, 0x00,
  0x01, 0x00, 0x00, 0x00, 0x04, 0x00, 0x00, 0x00, 0xE2, 0xFA, 0xFF, 0xFF,
  0x04, 0x00, 0x00, 0x00, 0x01, 0x00, 0x00, 0x00, 0x78, 0x00, 0x00, 0x00,
  0x02, 0x00, 0x00, 0x00, 0x34, 0x00, 0x00, 0x00, 0x04, 0x00, 0x00, 0x00,
  0xDC, 0xFF, 0xFF, 0xFF, 0x0D, 0x00, 0x00, 0x00, 0x04, 0x00, 0x00, 0x00,
  0x13, 0x00, 0x00, 0x00, 0x43, 0x4F, 0x4E, 0x56, 0x45, 0x52, 0x53, 0x49,
  0x4F, 0x4E, 0x5F, 0x4D, 0x45, 0x54, 0x41, 0x44, 0x41, 0x54, 0x41, 0x00,
  0x08, 0x00, 0x0C, 0x00, 0x08, 0x00, 0x04, 0x00, 0x08, 0x00, 0x00, 0x00,
  0x0C, 0x00, 0x00, 0x00, 0x04, 0x00, 0x00, 0x00, 0x13, 0x00, 0x00, 0x00,
  0x6D, 0x69, 0x6E, 0x5F, 0x72, 0x75, 0x6E, 0x74, 0x69, 0x6D, 0x65, 0x5F,
  0x76, 0x65, 0x72, 0x73, 0x69, 0x6F, 0x6E, 0x00, 0x0E, 0x00, 0x00, 0x00,
  0x1C, 0x04, 0x00, 0x00, 0x14, 0x04, 0x00, 0x00, 0xD4, 0x03, 0x00, 0x00,
  0x34, 0x03, 0x00, 0x00, 0xF4, 0x02, 0x00, 0x00, 0xC4, 0x01, 0x00, 0x00,
  0x54, 0x01, 0x00, 0x00, 0xB4, 0x00, 0x00, 0x00, 0xAC, 0x00, 0x00, 0x00,
  0xA4, 0x00, 0x00, 0x00, 0x9C, 0x00, 0x00, 0x00, 0x94, 0x00, 0x00, 0x00,
  0x74, 0x00, 0x00, 0x00, 0x04, 0x00, 0x00, 0x00, 0x8A, 0xFB, 0xFF, 0xFF,
  0x04, 0x00, 0x00, 0x00, 0x60, 0x00, 0x00, 0x00, 0x0C, 0x00, 0x00, 0x00,
  0x08, 0x00, 0x0E, 0x00, 0x08, 0x00, 0x04, 0x00, 0x08, 0x00, 0x00, 0x00,
  0x10, 0x00, 0x00, 0x00, 0x28, 0x00, 0x00, 0x00, 0x00, 0x00, 0x06, 0x00,
  0x08, 0x00, 0x04, 0x00, 0x06, 0x00, 0x00, 0x00, 0x04, 0x00, 0x00, 0x00,
  0x01, 0x00, 0x00, 0x00, 0xEB, 0x03, 0x00, 0x00, 0x0C, 0x00, 0x18, 0x00,
  0x14, 0x00, 0x10, 0x00, 0x0C, 0x00, 0x04, 0x00, 0x0C, 0x00, 0x00, 0x00,
  0xC4, 0x8A, 0x2C, 0x12, 0x3B, 0x66, 0x18, 0xBA, 0x02, 0x00, 0x00, 0x00,
  0x02, 0x00, 0x00, 0x00, 0x04, 0x00, 0x00, 0x00, 0x06, 0x00, 0x00, 0x00,
  0x32, 0x2E, 0x32, 0x30, 0x2E, 0x30, 0x00, 0x00, 0xF6, 0xFB, 0xFF, 0xFF,
  0x04, 0x00, 0x00, 0x00, 0x10, 0x00, 0x00, 0x00, 0x31, 0x2E, 0x31, 0x34,
  0x2E, 0x30, 0x00, 0x00, 0x00, 0x00, 0x00, 0x00, 0x00, 0x00, 0x00, 0x00,
  0xE0, 0xFB, 0xFF, 0xFF, 0xE4, 0xFB, 0xFF, 0xFF, 0xE8, 0xFB, 0xFF, 0xFF,
  0xEC, 0xFB, 0xFF, 0xFF, 0x22, 0xFC, 0xFF, 0xFF, 0x04, 0x00, 0x00, 0x00,
  0x90, 0x00, 0x00, 0x00, 0x51, 0xD4, 0x7F, 0x0A, 0xC0, 0x01, 0x08, 0x02,
  0x81, 0x45, 0x00, 0xF6, 0x4D, 0xC9, 0xD8, 0x81, 0x39, 0x08, 0x0A, 0xFA,
  0x6E, 0x81, 0xFB, 0x0F, 0x13, 0xEE, 0x16, 0xDF, 0x7F, 0x01, 0xFE, 0x04,
  0x81, 0xF0, 0xF5, 0x09, 0x02, 0x02, 0x04, 0x81, 0xF4, 0x00, 0xF2, 0x06,
  0x7F, 0xF2, 0xFD, 0xFC, 0x06, 0x04, 0x7B, 0x81, 0x02, 0x02, 0x11, 0x01,
  0xC6, 0x7F, 0xC1, 0x07, 0xFA, 0x81, 0xA8, 0x48, 0x32, 0xF0, 0x81, 0xEE,
  0x77, 0x0C, 0x31, 0xED, 0xDD, 0x04, 0x60, 0x7F, 0x0B, 0x00, 0xF4, 0xDE,
  0x42, 0x7F, 0x51, 0x33, 0x08, 0x0E, 0x15, 0x81, 0xCE, 0xED, 0x04, 0x09,
  0x81, 0xE4, 0x04, 0x06, 0xFA, 0x06, 0x2B, 0x7F, 0xFB, 0x05, 0xE1, 0x81,
  0xBB, 0x10, 0xFF, 0x17, 0x02, 0xE7, 0x19, 0x7F, 0x47, 0xF4, 0x2B, 0x1C,
  0xB1, 0x7F, 0xCD, 0x2C, 0xB9, 0xEA, 0x51, 0x65, 0x7F, 0x20, 0x25, 0xE8,
  0xEC, 0x81, 0xCA, 0x3D, 0xD1, 0x01, 0x64, 0x81, 0x28, 0xFA, 0x0E, 0x15,
  0xA0, 0x7F, 0x6D, 0xFB, 0xBE, 0xFC, 0xFF, 0xFF, 0x04, 0x00, 0x00, 0x00,
  0x60, 0x00, 0x00, 0x00, 0x04, 0x00, 0x00, 0x00, 0x00, 0x00, 0x00, 0x00,
  0x04, 0x00, 0x00, 0x00, 0x00, 0x00, 0x00, 0x00, 0x04, 0x00, 0x00, 0x00,
  0x07, 0x00, 0x00, 0x00, 0x04, 0x00, 0x00, 0x00, 0xFE, 0xFF, 0xFF, 0xFF,
  0x03, 0x00, 0x00, 0x00, 0xFC, 0xFF, 0xFF, 0xFF, 0x04, 0x00, 0x00, 0x00,
  0x07, 0x00, 0x00, 0x00, 0xF7, 0xFF, 0xFF, 0xFF, 0x07, 0x00, 0x00, 0x00,
  0xFE, 0xFF, 0xFF, 0xFF, 0x08, 0x00, 0x00, 0x00, 0xFB, 0xFF, 0xFF, 0xFF,
  0x01, 0x00, 0x00, 0x00, 0x08, 0x00, 0x00, 0x00, 0xE7, 0xFF, 0xFF, 0xFF,
  0x0A, 0x00, 0x00, 0x00, 0xFF, 0xFF, 0xFF, 0xFF, 0x08, 0x00, 0x00, 0x00,
  0xFA, 0xFF, 0xFF, 0xFF, 0x2A, 0xFD, 0xFF, 0xFF, 0x04, 0x00, 0x00, 0x00,
  0x20, 0x01, 0x00, 0x00, 0xE6, 0x16, 0x0A, 0x93, 0xF5, 0x2C, 0xA1, 0xE3,
  0xD3, 0x81, 0x6F, 0x01, 0xE3, 0xE1, 0xC2, 0x2A, 0x05, 0x64, 0xAF, 0xAA,
  0xF2, 0x40, 0x14, 0x6D, 0xB8, 0xE2, 0x5D, 0xA9, 0xAE, 0x41, 0x1F, 0x9B,
  0x81, 0xAD, 0xBB, 0xCD, 0x9E, 0x9B, 0xB6, 0x10, 0xD5, 0x1F, 0x66, 0xCE,
  0x18, 0xDE, 0x0F, 0x36, 0xB6, 0xEC, 0x81, 0x20, 0xDA, 0xC4, 0xD2, 0x8E,
  0xFE, 0x9A, 0x7F, 0xE3, 0x49, 0x7C, 0x95, 0x83, 0xC3, 0x25, 0x22, 0x91,
  0xCB, 0xB6, 0xE1, 0x83, 0xD3, 0x38, 0xBD, 0xCF, 0x98, 0x81, 0xB9, 0x25,
  0x09, 0x4C, 0xD8, 0x1A, 0x44, 0x25, 0xA3, 0x13, 0x25, 0x5F, 0x1C, 0xFB,
  0xC5, 0xE2, 0x00, 0x82, 0x02, 0xE5, 0x18, 0x14, 0xF7, 0x15, 0x2F, 0x0C,
  0x1D, 0xF7, 0xF4, 0x0E, 0xF3, 0xED, 0xF8, 0x13, 0xE2, 0x81, 0xFF, 0xE4,
  0x0E, 0xFE, 0x27, 0xF1, 0x31, 0xBF, 0xEF, 0x24, 0x7F, 0xC5, 0xA4, 0x3D,
  0x21, 0x8D, 0x7D, 0x09, 0x50, 0x2B, 0xE4, 0xC9, 0x0A, 0x41, 0xAE, 0xF2,
  0x2D, 0xDF, 0x1D, 0x2C, 0xB9, 0xEB, 0x21, 0x15, 0x81, 0x11, 0x1F, 0xF8,
  0x1F, 0x29, 0x0F, 0x15, 0x12, 0x1B, 0x1D, 0xE1, 0xEB, 0xF9, 0xEA, 0xE8,
  0xEA, 0xEF, 0xE5, 0x02, 0x35, 0x9E, 0x0A, 0x25, 0xE3, 0x37, 0x81, 0xE0,
  0x03, 0x1B, 0x7B, 0x22, 0x24, 0x36, 0x1D, 0xCB, 0x06, 0x97, 0x24, 0x3E,
  0x12, 0xB6, 0x0C, 0x01, 0xC3, 0xAC, 0x8C, 0xE4, 0xC2, 0x29, 0xA6, 0x7F,
  0xB7, 0xEA, 0x23, 0xE7, 0xF2, 0x81, 0x89, 0x99, 0x7B, 0x01, 0x60, 0xFD,
  0x6F, 0xA9, 0x49, 0x84, 0xFA, 0xFB, 0x0B, 0xF7, 0xFE, 0xED, 0xED, 0xFC,
  0x06, 0x0A, 0xCF, 0x9A, 0x81, 0xED, 0xF8, 0x00, 0xF4, 0x01, 0x1A, 0x09,
  0x1D, 0x02, 0x0A, 0x0D, 0x25, 0xD9, 0x81, 0x9A, 0x28, 0x56, 0x39, 0xF3,
  0xAC, 0x34, 0x7B, 0x3B, 0x38, 0x5B, 0x21, 0xA5, 0x06, 0x4E, 0xB7, 0xC3,
  0x06, 0xD6, 0x10, 0x0D, 0x1E, 0xCB, 0x4E, 0x85, 0xA7, 0x24, 0xF5, 0x23,
  0xF0, 0x7F, 0x02, 0xC8, 0x2E, 0x19, 0x18, 0x12, 0xD5, 0xC0, 0xF7, 0x28,
  0x56, 0xA7, 0xC4, 0xC4, 0x56, 0xFE, 0xFF, 0xFF, 0x04, 0x00, 0x00, 0x00,
  0x30, 0x00, 0x00, 0x00, 0x7F, 0x00, 0x00, 0x00, 0xF0, 0xFF, 0xFF, 0xFF,
  0x00, 0x00, 0x00, 0x00, 0xE4, 0xFF, 0xFF, 0xFF, 0x6F, 0x00, 0x00, 0x00,
  0x85, 0xFF, 0xFF, 0xFF, 0xDB, 0xFF, 0xFF, 0xFF, 0x14, 0x00, 0x00, 0x00,
  0xFB, 0xFF, 0xFF, 0xFF, 0x00, 0x00, 0x00, 0x00, 0x1A, 0x00, 0x00, 0x00,
  0x9B, 0xFF, 0xFF, 0xFF, 0x92, 0xFE, 0xFF, 0xFF, 0x04, 0x00, 0x00, 0x00,
  0x90, 0x00, 0x00, 0x00, 0x39, 0xC9, 0xE0, 0x20, 0x81, 0x4C, 0xCB, 0x1C,
  0xD8, 0xC3, 0x3D, 0xA3, 0xDA, 0x00, 0xFD, 0xFE, 0x17, 0x03, 0x07, 0x81,
  0x03, 0xFA, 0xFB, 0xAF, 0x81, 0x29, 0x1B, 0x11, 0x48, 0xBB, 0x9D, 0xFB,
  0xD8, 0xD4, 0x0F, 0xFA, 0x0C, 0x0E, 0xF3, 0x07, 0xCE, 0xFF, 0x02, 0xB5,
  0x11, 0x06, 0x81, 0x05, 0x05, 0x12, 0xE0, 0xC5, 0xA7, 0x29, 0xAB, 0xBC,
  0xFE, 0xF9, 0x0B, 0x81, 0x81, 0x16, 0x11, 0xD9, 0x98, 0x13, 0xF4, 0xEA,
  0x11, 0x8A, 0xCB, 0x0D, 0x31, 0x1A, 0xE7, 0xE6, 0x81, 0x12, 0x26, 0xC3,
  0xBE, 0x13, 0x95, 0x14, 0x19, 0xF3, 0x0D, 0xD6, 0xC4, 0xFF, 0x22, 0x81,
  0x2A, 0xFF, 0xFA, 0x0E, 0x81, 0xF1, 0x0F, 0x10, 0xAC, 0x12, 0x15, 0x9A,
  0x16, 0x09, 0xB0, 0x0A, 0x81, 0xF4, 0x07, 0x11, 0xFE, 0xE7, 0xE9, 0xF5,
  0xEC, 0xAD, 0x9F, 0xF6, 0xE6, 0x0F, 0xF6, 0xFC, 0x20, 0xF1, 0xFC, 0x0A,
  0xF3, 0x02, 0x81, 0xC6, 0x0A, 0xE1, 0xDA, 0x24, 0x4E, 0x81, 0xCC, 0x08,
  0xF5, 0x08, 0xF9, 0xF2, 0x2E, 0xFF, 0xFF, 0xFF, 0x04, 0x00, 0x00, 0x00,
  0x30, 0x00, 0x00, 0x00, 0x8F, 0x00, 0x00, 0x00, 0x5C, 0xFF, 0xFF, 0xFF,
  0xE9, 0x02, 0x00, 0x00, 0x8D, 0xFF, 0xFF, 0xFF, 0x08, 0xFC, 0xFF, 0xFF,
  0x81, 0xFB, 0xFF, 0xFF, 0x53, 0x00, 0x00, 0x00, 0x09, 0xFE, 0xFF, 0xFF,
  0xA5, 0x00, 0x00, 0x00, 0x84, 0xFC, 0xFF, 0xFF, 0x9D, 0xFF, 0xFF, 0xFF,
  0x86, 0x01, 0x00, 0x00, 0x38, 0xFF, 0xFF, 0xFF, 0x3C, 0xFF, 0xFF, 0xFF,
  0x0F, 0x00, 0x00, 0x00, 0x4D, 0x4C, 0x49, 0x52, 0x20, 0x43, 0x6F, 0x6E,
  0x76, 0x65, 0x72, 0x74, 0x65, 0x64, 0x2E, 0x00, 0x01, 0x00, 0x00, 0x00,
  0x14, 0x00, 0x00, 0x00, 0x00, 0x00, 0x0E, 0x00, 0x18, 0x00, 0x14, 0x00,
  0x10, 0x00, 0x0C, 0x00, 0x08, 0x00, 0x04, 0x00, 0x0E, 0x00, 0x00, 0x00,
  0x14, 0x00, 0x00, 0x00, 0x1C, 0x00, 0x00, 0x00, 0x28, 0x01, 0x00, 0x00,
  0x2C, 0x01, 0x00, 0x00, 0x30, 0x01, 0x00, 0x00, 0x04, 0x00, 0x00, 0x00,
  0x6D, 0x61, 0x69, 0x6E, 0x00, 0x00, 0x00, 0x00, 0x04, 0x00, 0x00, 0x00,
  0xD0, 0x00, 0x00, 0x00, 0x88, 0x00, 0x00, 0x00, 0x50, 0x00, 0x00, 0x00,
  0x14, 0x00, 0x00, 0x00, 0x00, 0x00, 0x0E, 0x00, 0x1A, 0x00, 0x14, 0x00,
  0x10, 0x00, 0x0C, 0x00, 0x0B, 0x00, 0x04, 0x00, 0x0E, 0x00, 0x00, 0x00,
  0x1C, 0x00, 0x00, 0x00, 0x00, 0x00, 0x00, 0x09, 0x1C, 0x00, 0x00, 0x00,
  0x20, 0x00, 0x00, 0x00, 0x01, 0x00, 0x00, 0x00, 0x00, 0x00, 0x06, 0x00,
  0x08, 0x00, 0x04, 0x00, 0x06, 0x00, 0x00, 0x00, 0x00, 0x00, 0x80, 0x3F,
  0x01, 0x00, 0x00, 0x00, 0x0A, 0x00, 0x00, 0x00, 0x01, 0x00, 0x00, 0x00,
  0x09, 0x00, 0x00, 0x00, 0x96, 0xFF, 0xFF, 0xFF, 0x14, 0x00, 0x00, 0x00,
  0x00, 0x00, 0x00, 0x08, 0x10, 0x00, 0x00, 0x00, 0x14, 0x00, 0x00, 0x00,
  0x04, 0x00, 0x04, 0x00, 0x04, 0x00, 0x00, 0x00, 0x01, 0x00, 0x00, 0x00,
  0x09, 0x00, 0x00, 0x00, 0x03, 0x00, 0x00, 0x00, 0x08, 0x00, 0x00, 0x00,
  0x02, 0x00, 0x00, 0x00, 0x01, 0x00, 0x00, 0x00, 0xCA, 0xFF, 0xFF, 0xFF,
  0x10, 0x00, 0x00, 0x00, 0x00, 0x00, 0x00, 0x08, 0x10, 0x00, 0x00, 0x00,
  0x14, 0x00, 0x00, 0x00, 0xBA, 0xFF, 0xFF, 0xFF, 0x00, 0x00, 0x00, 0x01,
  0x01, 0x00, 0x00, 0x00, 0x08, 0x00, 0x00, 0x00, 0x03, 0x00, 0x00, 0x00,
  0x07, 0x00, 0x00, 0x00, 0x04, 0x00, 0x00, 0x00, 0x03, 0x00, 0x00, 0x00,
  0x00, 0x00, 0x0E, 0x00, 0x16, 0x00, 0x00, 0x00, 0x10, 0x00, 0x0C, 0x00,
  0x0B, 0x00, 0x04, 0x00, 0x0E, 0x00, 0x00, 0x00, 0x18, 0x00, 0x00, 0x00,
  0x00, 0x00, 0x00, 0x08, 0x18, 0x00, 0x00, 0x00, 0x1C, 0x00, 0x00, 0x00,
  0x00, 0x00, 0x06, 0x00, 0x08, 0x00, 0x07, 0x00, 0x06, 0x00, 0x00, 0x00,
  0x00, 0x00, 0x00, 0x01, 0x01, 0x00, 0x00, 0x00, 0x07, 0x00, 0x00, 0x00,
  0x03, 0x00, 0x00, 0x00, 0x00, 0x00, 0x00, 0x00, 0x06, 0x00, 0x00, 0x00,
  0x05, 0x00, 0x00, 0x00, 0x01, 0x00, 0x00, 0x00, 0x0A, 0x00, 0x00, 0x00,
  0x01, 0x00, 0x00, 0x00, 0x00, 0x00, 0x00, 0x00, 0x0B, 0x00, 0x00, 0x00,
  0x88, 0x09, 0x00, 0x00, 0x88, 0x08, 0x00, 0x00, 0x84, 0x07, 0x00, 0x00,
  0xA0, 0x06, 0x00, 0x00, 0xB4, 0x05, 0x00, 0x00, 0x40, 0x04, 0x00, 0x00,
  0xC4, 0x02, 0x00, 0x00, 0xF8, 0x01, 0x00, 0x00, 0x2C, 0x01, 0x00, 0x00,
  0x80, 0x00, 0x00, 0x00, 0x04, 0x00, 0x00, 0x00, 0xBA, 0xF6, 0xFF, 0xFF,
  0x00, 0x00, 0x00, 0x01, 0x18, 0x00, 0x00, 0x00, 0x20, 0x00, 0x00, 0x00,
  0x3C, 0x00, 0x00, 0x00, 0x0B, 0x00, 0x00, 0x00, 0x00, 0x00, 0x00, 0x09,
  0x50, 0x00, 0x00, 0x00, 0x02, 0x00, 0x00, 0x00, 0xFF, 0xFF, 0xFF, 0xFF,
  0x0C, 0x00, 0x00, 0x00, 0xA4, 0xF6, 0xFF, 0xFF, 0x08, 0x00, 0x00, 0x00,
  0x10, 0x00, 0x00, 0x00, 0x01, 0x00, 0x00, 0x00, 0x80, 0xFF, 0xFF, 0xFF,
  0xFF, 0xFF, 0xFF, 0xFF, 0x01, 0x00, 0x00, 0x00, 0x00, 0x00, 0x80, 0x3B,
  0x1B, 0x00, 0x00, 0x00, 0x53, 0x74, 0x61, 0x74, 0x65, 0x66, 0x75, 0x6C,
  0x50, 0x61, 0x72, 0x74, 0x69, 0x74, 0x69, 0x6F, 0x6E, 0x65, 0x64, 0x43,
  0x61, 0x6C, 0x6C, 0x5F, 0x31, 0x3A, 0x30, 0x00, 0x02, 0x00, 0x00, 0x00,
  0x01, 0x00, 0x00, 0x00, 0x0C, 0x00, 0x00, 0x00, 0x32, 0xF7, 0xFF, 0xFF,
  0x00, 0x00, 0x00, 0x01, 0x18, 0x00, 0x00, 0x00, 0x20, 0x00, 0x00, 0x00,
  0x3C, 0x00, 0x00, 0x00, 0x0A, 0x00, 0x00, 0x00, 0x00, 0x00, 0x00, 0x09,
  0x80, 0x00, 0x00, 0x00, 0x02, 0x00, 0x00, 0x00, 0xFF, 0xFF, 0xFF, 0xFF,
  0x0C, 0x00, 0x00, 0x00, 0x1C, 0xF7, 0xFF, 0xFF, 0x08, 0x00, 0x00, 0x00,
  0x10, 0x00, 0x00, 0x00, 0x01, 0x00, 0x00, 0x00, 0x6D, 0x00, 0x00, 0x00,
  0x00, 0x00, 0x00, 0x00, 0x01, 0x00, 0x00, 0x00, 0xA4, 0xCB, 0xBA, 0x3F,
  0x48, 0x00, 0x00, 0x00, 0x72, 0x69, 0x70, 0x70, 0x6C, 0x65, 0x5F, 0x6D,
  0x63, 0x75, 0x5F, 0x74, 0x69, 0x6E, 0x79, 0x5F, 0x31, 0x2F, 0x64, 0x65,
  0x6E, 0x73, 0x65, 0x5F, 0x31, 0x31, 0x5F, 0x31, 0x2F, 0x4D, 0x61, 0x74,
  0x4D, 0x75, 0x6C, 0x3B, 0x72, 0x69, 0x70, 0x70, 0x6C, 0x65, 0x5F, 0x6D,
  0x63, 0x75, 0x5F, 0x74, 0x69, 0x6E, 0x79, 0x5F, 0x31, 0x2F, 0x64, 0x65,
  0x6E, 0x73, 0x65, 0x5F, 0x31, 0x31, 0x5F, 0x31, 0x2F, 0x42, 0x69, 0x61,
  0x73, 0x41, 0x64, 0x64, 0x00, 0x00, 0x00, 0x00, 0x02, 0x00, 0x00, 0x00,
  0x01, 0x00, 0x00, 0x00, 0x0C, 0x00, 0x00, 0x00, 0xDA, 0xF7, 0xFF, 0xFF,
  0x00, 0x00, 0x00, 0x01, 0x18, 0x00, 0x00, 0x00, 0x20, 0x00, 0x00, 0x00,
  0x3C, 0x00, 0x00, 0x00, 0x09, 0x00, 0x00, 0x00, 0x00, 0x00, 0x00, 0x09,
  0xA0, 0x00, 0x00, 0x00, 0x02, 0x00, 0x00, 0x00, 0xFF, 0xFF, 0xFF, 0xFF,
  0x0C, 0x00, 0x00, 0x00, 0xC4, 0xF7, 0xFF, 0xFF, 0x08, 0x00, 0x00, 0x00,
  0x10, 0x00, 0x00, 0x00, 0x01, 0x00, 0x00, 0x00, 0x80, 0xFF, 0xFF, 0xFF,
  0xFF, 0xFF, 0xFF, 0xFF, 0x01, 0x00, 0x00, 0x00, 0xE3, 0xCC, 0x8E, 0x3E,
  0x6A, 0x00, 0x00, 0x00, 0x72, 0x69, 0x70, 0x70, 0x6C, 0x65, 0x5F, 0x6D,
  0x63, 0x75, 0x5F, 0x74, 0x69, 0x6E, 0x79, 0x5F, 0x31, 0x2F, 0x64, 0x65,
  0x6E, 0x73, 0x65, 0x5F, 0x31, 0x30, 0x5F, 0x31, 0x2F, 0x4D, 0x61, 0x74,
  0x4D, 0x75, 0x6C, 0x3B, 0x72, 0x69, 0x70, 0x70, 0x6C, 0x65, 0x5F, 0x6D,
  0x63, 0x75, 0x5F, 0x74, 0x69, 0x6E, 0x79, 0x5F, 0x31, 0x2F, 0x64, 0x65,
  0x6E, 0x73, 0x65, 0x5F, 0x31, 0x30, 0x5F, 0x31, 0x2F, 0x52, 0x65, 0x6C,
  0x75, 0x3B, 0x72, 0x69, 0x70, 0x70, 0x6C, 0x65, 0x5F, 0x6D, 0x63, 0x75,
  0x5F, 0x74, 0x69, 0x6E, 0x79, 0x5F, 0x31, 0x2F, 0x64, 0x65, 0x6E, 0x73,
  0x65, 0x5F, 0x31, 0x30, 0x5F, 0x31, 0x2F, 0x42, 0x69, 0x61, 0x73, 0x41,
  0x64, 0x64, 0x00, 0x00, 0x02, 0x00, 0x00, 0x00, 0x01, 0x00, 0x00, 0x00,
  0x0C, 0x00, 0x00, 0x00, 0xA2, 0xF8, 0xFF, 0xFF, 0x00, 0x00, 0x00, 0x01,
  0x18, 0x00, 0x00, 0x00, 0x20, 0x00, 0x00, 0x00, 0x40, 0x00, 0x00, 0x00,
  0x08, 0x00, 0x00, 0x00, 0x00, 0x00, 0x00, 0x09, 0xA0, 0x00, 0x00, 0x00,
  0x02, 0x00, 0x00, 0x00, 0xFF, 0xFF, 0xFF, 0xFF, 0x18, 0x00, 0x00, 0x00,
  0x8C, 0xF8, 0xFF, 0xFF, 0x08, 0x00, 0x00, 0x00, 0x14, 0x00, 0x00, 0x00,
  0x01, 0x00, 0x00, 0x00, 0x80, 0xFF, 0xFF, 0xFF, 0xFF, 0xFF, 0xFF, 0xFF,
  0x00, 0x00, 0x00, 0x00, 0x01, 0x00, 0x00, 0x00, 0x03, 0x6B, 0xD3, 0x3F,
  0x67, 0x00, 0x00, 0x00, 0x72, 0x69, 0x70, 0x70, 0x6C, 0x65, 0x5F, 0x6D,
  0x63, 0x75, 0x5F, 0x74, 0x69, 0x6E, 0x79, 0x5F, 0x31, 0x2F, 0x64, 0x65,
  0x6E, 0x73, 0x65, 0x5F, 0x39, 0x5F, 0x31, 0x2F, 0x4D, 0x61, 0x74, 0x4D,
  0x75, 0x6C, 0x3B, 0x72, 0x69, 0x70, 0x70, 0x6C, 0x65, 0x5F, 0x6D, 0x63,
  0x75, 0x5F, 0x74, 0x69, 0x6E, 0x79, 0x5F, 0x31, 0x2F, 0x64, 0x65, 0x6E,
  0x73, 0x65, 0x5F, 0x39, 0x5F, 0x31, 0x2F, 0x52, 0x65, 0x6C, 0x75, 0x3B,
  0x72, 0x69, 0x70, 0x70, 0x6C, 0x65, 0x5F, 0x6D, 0x63, 0x75, 0x5F, 0x74,
  0x69, 0x6E, 0x79, 0x5F, 0x31, 0x2F, 0x64, 0x65, 0x6E, 0x73, 0x65, 0x5F,
  0x39, 0x5F, 0x31, 0x2F, 0x42, 0x69, 0x61, 0x73, 0x41, 0x64, 0x64, 0x00,
  0x02, 0x00, 0x00, 0x00, 0x01, 0x00, 0x00, 0x00, 0x18, 0x00, 0x00, 0x00,
  0x66, 0xFA, 0xFF, 0xFF, 0x00, 0x00, 0x00, 0x01, 0x14, 0x00, 0x00, 0x00,
  0x48, 0x01, 0x00, 0x00, 0x07, 0x00, 0x00, 0x00, 0x00, 0x00, 0x00, 0x09,
  0x54, 0x01, 0x00, 0x00, 0x44, 0xF9, 0xFF, 0xFF, 0x08, 0x00, 0x00, 0x00,
  0xCC, 0x00, 0x00, 0x00, 0x18, 0x00, 0x00, 0x00, 0x00, 0x00, 0x00, 0x00,
  0x00, 0x00, 0x00, 0x00, 0x00, 0x00, 0x00, 0x00, 0x00, 0x00, 0x00, 0x00,
  0x00, 0x00, 0x00, 0x00, 0x00, 0x00, 0x00, 0x00, 0x00, 0x00, 0x00, 0x00,
  0x00, 0x00, 0x00, 0x00, 0x00, 0x00, 0x00, 0x00, 0x00, 0x00, 0x00, 0x00,
  0x00, 0x00, 0x00, 0x00, 0x00, 0x00, 0x00, 0x00, 0x00, 0x00, 0x00, 0x00,
  0x00, 0x00, 0x00, 0x00, 0x00, 0x00, 0x00, 0x00, 0x00, 0x00, 0x00, 0x00,
  0x00, 0x00, 0x00, 0x00, 0x00, 0x00, 0x00, 0x00, 0x00, 0x00, 0x00, 0x00,
  0x00, 0x00, 0x00, 0x00, 0x00, 0x00, 0x00, 0x00, 0x00, 0x00, 0x00, 0x00,
  0x00, 0x00, 0x00, 0x00, 0x00, 0x00, 0x00, 0x00, 0x00, 0x00, 0x00, 0x00,
  0x00, 0x00, 0x00, 0x00, 0x00, 0x00, 0x00, 0x00, 0x00, 0x00, 0x00, 0x00,
  0x00, 0x00, 0x00, 0x00, 0x00, 0x00, 0x00, 0x00, 0x00, 0x00, 0x00, 0x00,
  0x00, 0x00, 0x00, 0x00, 0x00, 0x00, 0x00, 0x00, 0x00, 0x00, 0x00, 0x00,
  0x00, 0x00, 0x00, 0x00, 0x00, 0x00, 0x00, 0x00, 0x00, 0x00, 0x00, 0x00,
  0x00, 0x00, 0x00, 0x00, 0x00, 0x00, 0x00, 0x00, 0x00, 0x00, 0x00, 0x00,
  0x00, 0x00, 0x00, 0x00, 0x00, 0x00, 0x00, 0x00, 0x00, 0x00, 0x00, 0x00,
  0x00, 0x00, 0x00, 0x00, 0x00, 0x00, 0x00, 0x00, 0x00, 0x00, 0x00, 0x00,
  0x00, 0x00, 0x00, 0x00, 0x00, 0x00, 0x00, 0x00, 0x00, 0x00, 0x00, 0x00,
  0x18, 0x00, 0x00, 0x00, 0x2D, 0xC0, 0xA9, 0x3B, 0x14, 0xDE, 0xE2, 0x3C,
  0xCD, 0x28, 0x65, 0x3B, 0x83, 0x4D, 0x82, 0x3C, 0xCE, 0x83, 0x8B, 0x3C,
  0xF5, 0x9D, 0xA9, 0x3C, 0x0F, 0x6B, 0x17, 0x3D, 0xD4, 0x05, 0x10, 0x3D,
  0xB0, 0xF0, 0xB1, 0x3C, 0xBD, 0xFA, 0x9A, 0x3C, 0xCD, 0xF3, 0x98, 0x3B,
  0x01, 0xD7, 0x03, 0x3C, 0x78, 0x80, 0x8A, 0x3C, 0xE2, 0xF8, 0x9B, 0x3B,
  0x37, 0x97, 0x83, 0x3C, 0x9E, 0x46, 0xAF, 0x3C, 0x56, 0x91, 0xD0, 0x3C,
  0x80, 0x60, 0x2C, 0x3C, 0xF8, 0x41, 0x56, 0x3C, 0xDB, 0xE7, 0xAC, 0x3B,
  0xE6, 0x2E, 0xD5, 0x3B, 0x56, 0xF0, 0xE5, 0x3B, 0xEA, 0xE7, 0xD2, 0x3C,
  0x09, 0x88, 0x30, 0x3C, 0x12, 0x00, 0x00, 0x00, 0x74, 0x66, 0x6C, 0x2E,
  0x70, 0x73, 0x65, 0x75, 0x64, 0x6F, 0x5F, 0x71, 0x63, 0x6F, 0x6E, 0x73,
  0x74, 0x35, 0x00, 0x00, 0x02, 0x00, 0x00, 0x00, 0x18, 0x00, 0x00, 0x00,
  0x06, 0x00, 0x00, 0x00, 0xDE, 0xFB, 0xFF, 0xFF, 0x00, 0x00, 0x00, 0x01,
  0x14, 0x00, 0x00, 0x00, 0x44, 0x01, 0x00, 0x00, 0x06, 0x00, 0x00, 0x00,
  0x00, 0x00, 0x00, 0x02, 0x50, 0x01, 0x00, 0x00, 0xBC, 0xFA, 0xFF, 0xFF,
  0x08, 0x00, 0x00, 0x00, 0xC8, 0x00, 0x00, 0x00, 0x18, 0x00, 0x00, 0x00,
  0x00, 0x00, 0x00, 0x00, 0x00, 0x00, 0x00, 0x00, 0x00, 0x00, 0x00, 0x00,
  0x00, 0x00, 0x00, 0x00, 0x00, 0x00, 0x00, 0x00, 0x00, 0x00, 0x00, 0x00,
  0x00, 0x00, 0x00, 0x00, 0x00, 0x00, 0x00, 0x00, 0x00, 0x00, 0x00, 0x00,
  0x00, 0x00, 0x00, 0x00, 0x00, 0x00, 0x00, 0x00, 0x00, 0x00, 0x00, 0x00,
  0x00, 0x00, 0x00, 0x00, 0x00, 0x00, 0x00, 0x00, 0x00, 0x00, 0x00, 0x00,
  0x00, 0x00, 0x00, 0x00, 0x00, 0x00, 0x00, 0x00, 0x00, 0x00, 0x00, 0x00,
  0x00, 0x00, 0x00, 0x00, 0x00, 0x00, 0x00, 0x00, 0x00, 0x00, 0x00, 0x00,
  0x00, 0x00, 0x00, 0x00, 0x00, 0x00, 0x00, 0x00, 0x00, 0x00, 0x00, 0x00,
  0x00, 0x00, 0x00, 0x00, 0x00, 0x00, 0x00, 0x00, 0x00, 0x00, 0x00, 0x00,
  0x00, 0x00, 0x00, 0x00, 0x00, 0x00, 0x00, 0x00, 0x00, 0x00, 0x00, 0x00,
  0x00, 0x00, 0x00, 0x00, 0x00, 0x00, 0x00, 0x00, 0x00, 0x00, 0x00, 0x00,
  0x00, 0x00, 0x00, 0x00, 0x00, 0x00, 0x00, 0x00, 0x00, 0x00, 0x00, 0x00,
  0x00, 0x00, 0x00, 0x00, 0x00, 0x00, 0x00, 0x00, 0x00, 0x00, 0x00, 0x00,
  0x00, 0x00, 0x00, 0x00, 0x00, 0x00, 0x00, 0x00, 0x00, 0x00, 0x00, 0x00,
  0x00, 0x00, 0x00, 0x00, 0x00, 0x00, 0x00, 0x00, 0x00, 0x00, 0x00, 0x00,
  0x00, 0x00, 0x00, 0x00, 0x00, 0x00, 0x00, 0x00, 0x00, 0x00, 0x00, 0x00,
  0x18, 0x00, 0x00, 0x00, 0x06, 0x05, 0x68, 0x3D, 0x4F, 0x0B, 0x9B, 0x3E,
  0x48, 0x9C, 0x1C, 0x3D, 0xE9, 0x19, 0x32, 0x3E, 0x49, 0xB1, 0x3E, 0x3E,
  0x41, 0xD6, 0x67, 0x3E, 0x59, 0xF6, 0xCE, 0x3E, 0xA2, 0xDA, 0xC4, 0x3E,
  0x97, 0x36, 0x73, 0x3E, 0x75, 0xD4, 0x53, 0x3E, 0x29, 0x0F, 0x51, 0x3D,
  0xBE, 0x33, 0xB4, 0x3D, 0xD1, 0x4E, 0x3D, 0x3E, 0xD4, 0x2F, 0x55, 0x3D,
  0x8E, 0xDC, 0x33, 0x3E, 0x51, 0x92, 0x6F, 0x3E, 0xB2, 0x89, 0x8E, 0x3E,
  0xF9, 0x9B, 0xEB, 0x3D, 0x2D, 0x6D, 0x12, 0x3E, 0xFB, 0x54, 0x6C, 0x3D,
  0x31, 0xB1, 0x91, 0x3D, 0xA6, 0x24, 0x9D, 0x3D, 0xC5, 0x22, 0x90, 0x3E,
  0xA4, 0x49, 0xF1, 0x3D, 0x12, 0x00, 0x00, 0x00, 0x74, 0x66, 0x6C, 0x2E,
  0x70, 0x73, 0x65, 0x75, 0x64, 0x6F, 0x5F, 0x71, 0x63, 0x6F, 0x6E, 0x73,
  0x74, 0x34, 0x00, 0x00, 0x01, 0x00, 0x00, 0x00, 0x18, 0x00, 0x00, 0x00,
  0x4E, 0xFD, 0xFF, 0xFF, 0x00, 0x00, 0x00, 0x01, 0x14, 0x00, 0x00, 0x00,
  0xB8, 0x00, 0x00, 0x00, 0x05, 0x00, 0x00, 0x00, 0x00, 0x00, 0x00, 0x09,
  0xC4, 0x00, 0x00, 0x00, 0x2C, 0xFC, 0xFF, 0xFF, 0x08, 0x00, 0x00, 0x00,
  0x6C, 0x00, 0x00, 0x00, 0x0C, 0x00, 0x00, 0x00, 0x00, 0x00, 0x00, 0x00,
  0x00, 0x00, 0x00, 0x00, 0x00, 0x00, 0x00, 0x00, 0x00, 0x00, 0x00, 0x00,
  0x00, 0x00, 0x00, 0x00, 0x00, 0x00, 0x00, 0x00, 0x00, 0x00, 0x00, 0x00,
  0x00, 0x00, 0x00, 0x00, 0x00, 0x00, 0x00, 0x00, 0x00, 0x00, 0x00, 0x00,
  0x00, 0x00, 0x00, 0x00, 0x00, 0x00, 0x00, 0x00, 0x00, 0x00, 0x00, 0x00,
  0x00, 0x00, 0x00, 0x00, 0x00, 0x00, 0x00, 0x00, 0x00, 0x00, 0x00, 0x00,
  0x00, 0x00, 0x00, 0x00, 0x00, 0x00, 0x00, 0x00, 0x00, 0x00, 0x00, 0x00,
  0x00, 0x00, 0x00, 0x00, 0x00, 0x00, 0x00, 0x00, 0x00, 0x00, 0x00, 0x00,
  0x00, 0x00, 0x00, 0x00, 0x00, 0x00, 0x00, 0x00, 0x00, 0x00, 0x00, 0x00,
  0x0C, 0x00, 0x00, 0x00, 0x74, 0xBB, 0xA3, 0x3B, 0x03, 0x24, 0x7E, 0x3B,
  0x49, 0x40, 0x44, 0x3B, 0xA1, 0x9B, 0x6A, 0x3B, 0xC6, 0x84, 0x66, 0x3C,
  0x50, 0xA7, 0xC0, 0x3B, 0xB8, 0xFA, 0x20, 0x3C, 0xD0, 0x48, 0x9F, 0x3B,
  0x2D, 0x7B, 0x3F, 0x3B, 0xF0, 0xF7, 0xB7, 0x3C, 0x76, 0x71, 0xAE, 0x3B,
  0x97, 0xA8, 0xCB, 0x3B, 0x12, 0x00, 0x00, 0x00, 0x74, 0x66, 0x6C, 0x2E,
  0x70, 0x73, 0x65, 0x75, 0x64, 0x6F, 0x5F, 0x71, 0x63, 0x6F, 0x6E, 0x73,
  0x74, 0x33, 0x00, 0x00, 0x02, 0x00, 0x00, 0x00, 0x0C, 0x00, 0x00, 0x00,
  0x18, 0x00, 0x00, 0x00, 0x36, 0xFE, 0xFF, 0xFF, 0x00, 0x00, 0x00, 0x01,
  0x14, 0x00, 0x00, 0x00, 0xB4, 0x00, 0x00, 0x00, 0x04, 0x00, 0x00, 0x00,
  0x00, 0x00, 0x00, 0x02, 0xC0, 0x00, 0x00, 0x00, 0x14, 0xFD, 0xFF, 0xFF,
  0x08, 0x00, 0x00, 0x00, 0x68, 0x00, 0x00, 0x00, 0x0C, 0x00, 0x00, 0x00,
  0x00, 0x00, 0x00, 0x00, 0x00, 0x00, 0x00, 0x00, 0x00, 0x00, 0x00, 0x00,
  0x00, 0x00, 0x00, 0x00, 0x00, 0x00, 0x00, 0x00, 0x00, 0x00, 0x00, 0x00,
  0x00, 0x00, 0x00, 0x00, 0x00, 0x00, 0x00, 0x00, 0x00, 0x00, 0x00, 0x00,
  0x00, 0x00, 0x00, 0x00, 0x00, 0x00, 0x00, 0x00, 0x00, 0x00, 0x00, 0x00,
  0x00, 0x00, 0x00, 0x00, 0x00, 0x00, 0x00, 0x00, 0x00, 0x00, 0x00, 0x00,
  0x00, 0x00, 0x00, 0x00, 0x00, 0x00, 0x00, 0x00, 0x00, 0x00, 0x00, 0x00,
  0x00, 0x00, 0x00, 0x00, 0x00, 0x00, 0x00, 0x00, 0x00, 0x00, 0x00, 0x00,
  0x00, 0x00, 0x00, 0x00, 0x00, 0x00, 0x00, 0x00, 0x00, 0x00, 0x00, 0x00,
  0x0C, 0x00, 0x00, 0x00, 0xF2, 0x37, 0x07, 0x3C, 0xEB, 0xE1, 0xD1, 0x3B,
  0x05, 0x13, 0xA2, 0x3B, 0x57, 0xC0, 0xC1, 0x3B, 0xCB, 0x5F, 0xBE, 0x3C,
  0x6F, 0x1A, 0x1F, 0x3C, 0xF0, 0xF1, 0x84, 0x3C, 0x99, 0x8B, 0x03, 0x3C,
  0x91, 0x22, 0x9E, 0x3B, 0x42, 0xEE, 0x17, 0x3D, 0x70, 0x10, 0x10, 0x3C,
  0x16, 0x31, 0x28, 0x3C, 0x12, 0x00, 0x00, 0x00, 0x74, 0x66, 0x6C, 0x2E,
  0x70, 0x73, 0x65, 0x75, 0x64, 0x6F, 0x5F, 0x71, 0x63, 0x6F, 0x6E, 0x73,
  0x74, 0x32, 0x00, 0x00, 0x01, 0x00, 0x00, 0x00, 0x0C, 0x00, 0x00, 0x00,
  0x16, 0xFF, 0xFF, 0xFF, 0x00, 0x00, 0x00, 0x01, 0x14, 0x00, 0x00, 0x00,
  0xB8, 0x00, 0x00, 0x00, 0x03, 0x00, 0x00, 0x00, 0x00, 0x00, 0x00, 0x09,
  0xC4, 0x00, 0x00, 0x00, 0xF4, 0xFD, 0xFF, 0xFF, 0x08, 0x00, 0x00, 0x00,
  0x6C, 0x00, 0x00, 0x00, 0x0C, 0x00, 0x00, 0x00, 0x00, 0x00, 0x00, 0x00,
  0x00, 0x00, 0x00, 0x00, 0x00, 0x00, 0x00, 0x00, 0x00, 0x00, 0x00, 0x00,
  0x00, 0x00, 0x00, 0x00, 0x00, 0x00, 0x00, 0x00, 0x00, 0x00, 0x00, 0x00,
  0x00, 0x00, 0x00, 0x00, 0x00, 0x00, 0x00, 0x00, 0x00, 0x00, 0x00, 0x00,
  0x00, 0x00, 0x00, 0x00, 0x00, 0x00, 0x00, 0x00, 0x00, 0x00, 0x00, 0x00,
  0x00, 0x00, 0x00, 0x00, 0x00, 0x00, 0x00, 0x00, 0x00, 0x00, 0x00, 0x00,
  0x00, 0x00, 0x00, 0x00, 0x00, 0x00, 0x00, 0x00, 0x00, 0x00, 0x00, 0x00,
  0x00, 0x00, 0x00, 0x00, 0x00, 0x00, 0x00, 0x00, 0x00, 0x00, 0x00, 0x00,
  0x00, 0x00, 0x00, 0x00, 0x00, 0x00, 0x00, 0x00, 0x00, 0x00, 0x00, 0x00,
  0x0C, 0x00, 0x00, 0x00, 0x76, 0x55, 0xDB, 0x3B, 0x41, 0xF0, 0x1B, 0x3D,
  0x05, 0xD6, 0x2D, 0x3C, 0x6D, 0xB8, 0xE0, 0x3C, 0x91, 0x51, 0x02, 0x3C,
  0x23, 0xCD, 0x94, 0x3C, 0xBE, 0xA3, 0x03, 0x3C, 0x39, 0xFB, 0x1B, 0x3C,
  0x89, 0x8B, 0x8C, 0x3C, 0x65, 0x23, 0xBC, 0x3C, 0xAB, 0x14, 0xCC, 0x3C,
  0x70, 0x47, 0x12, 0x3C, 0x12, 0x00, 0x00, 0x00, 0x74, 0x66, 0x6C, 0x2E,
  0x70, 0x73, 0x65, 0x75, 0x64, 0x6F, 0x5F, 0x71, 0x63, 0x6F, 0x6E, 0x73,
  0x74, 0x31, 0x00, 0x00, 0x02, 0x00, 0x00, 0x00, 0x0C, 0x00, 0x00, 0x00,
  0x0C, 0x00, 0x00, 0x00, 0x00, 0x00, 0x16, 0x00, 0x1C, 0x00, 0x18, 0x00,
  0x17, 0x00, 0x10, 0x00, 0x0C, 0x00, 0x08, 0x00, 0x00, 0x00, 0x00, 0x00,
  0x00, 0x00, 0x07, 0x00, 0x16, 0x00, 0x00, 0x00, 0x00, 0x00, 0x00, 0x01,
  0x14, 0x00, 0x00, 0x00, 0xB8, 0x00, 0x00, 0x00, 0x02, 0x00, 0x00, 0x00,
  0x00, 0x00, 0x00, 0x02, 0xC4, 0x00, 0x00, 0x00, 0xF4, 0xFE, 0xFF, 0xFF,
  0x08, 0x00, 0x00, 0x00, 0x6C, 0x00, 0x00, 0x00, 0x0C, 0x00, 0x00, 0x00,
  0x00, 0x00, 0x00, 0x00, 0x00, 0x00, 0x00, 0x00, 0x00, 0x00, 0x00, 0x00,
  0x00, 0x00, 0x00, 0x00, 0x00, 0x00, 0x00, 0x00, 0x00, 0x00, 0x00, 0x00,
  0x00, 0x00, 0x00, 0x00, 0x00, 0x00, 0x00, 0x00, 0x00, 0x00, 0x00, 0x00,
  0x00, 0x00, 0x00, 0x00, 0x00, 0x00, 0x00, 0x00, 0x00, 0x00, 0x00, 0x00,
  0x00, 0x00, 0x00, 0x00, 0x00, 0x00, 0x00, 0x00, 0x00, 0x00, 0x00, 0x00,
  0x00, 0x00, 0x00, 0x00, 0x00, 0x00, 0x00, 0x00, 0x00, 0x00, 0x00, 0x00,
  0x00, 0x00, 0x00, 0x00, 0x00, 0x00, 0x00, 0x00, 0x00, 0x00, 0x00, 0x00,
  0x00, 0x00, 0x00, 0x00, 0x00, 0x00, 0x00, 0x00, 0x00, 0x00, 0x00, 0x00,
  0x00, 0x00, 0x00, 0x00, 0x0C, 0x00, 0x00, 0x00, 0xE4, 0xB1, 0xF4, 0x3A,
  0x24, 0xF8, 0x2D, 0x3C, 0xAF, 0xEF, 0x41, 0x3B, 0x4D, 0xB4, 0xFA, 0x3B,
  0x16, 0x63, 0x11, 0x3B, 0xC2, 0x01, 0xA6, 0x3B, 0x5D, 0xDC, 0x12, 0x3B,
  0x60, 0x04, 0x2E, 0x3B, 0xC4, 0xCB, 0x9C, 0x3B, 0x6A, 0xE4, 0xD1, 0x3B,
  0x99, 0xAD, 0xE3, 0x3B, 0x66, 0x31, 0x23, 0x3B, 0x11, 0x00, 0x00, 0x00,
  0x74, 0x66, 0x6C, 0x2E, 0x70, 0x73, 0x65, 0x75, 0x64, 0x6F, 0x5F, 0x71,
  0x63, 0x6F, 0x6E, 0x73, 0x74, 0x00, 0x00, 0x00, 0x01, 0x00, 0x00, 0x00,
  0x0C, 0x00, 0x00, 0x00, 0x00, 0x00, 0x16, 0x00, 0x20, 0x00, 0x1C, 0x00,
  0x1B, 0x00, 0x14, 0x00, 0x10, 0x00, 0x0C, 0x00, 0x00, 0x00, 0x00, 0x00,
  0x08, 0x00, 0x07, 0x00, 0x16, 0x00, 0x00, 0x00, 0x00, 0x00, 0x00, 0x01,
  0x18, 0x00, 0x00, 0x00, 0x2C, 0x00, 0x00, 0x00, 0x4C, 0x00, 0x00, 0x00,
  0x01, 0x00, 0x00, 0x00, 0x00, 0x00, 0x00, 0x09, 0x58, 0x00, 0x00, 0x00,
  0x02, 0x00, 0x00, 0x00, 0xFF, 0xFF, 0xFF, 0xFF, 0x06, 0x00, 0x00, 0x00,
  0x0C, 0x00, 0x0C, 0x00, 0x00, 0x00, 0x00, 0x00, 0x08, 0x00, 0x04, 0x00,
  0x0C, 0x00, 0x00, 0x00, 0x08, 0x00, 0x00, 0x00, 0x14, 0x00, 0x00, 0x00,
  0x01, 0x00, 0x00, 0x00, 0xEA, 0xFF, 0xFF, 0xFF, 0xFF, 0xFF, 0xFF, 0xFF,
  0x00, 0x00, 0x00, 0x00, 0x01, 0x00, 0x00, 0x00, 0x26, 0xF4, 0x2E, 0x41,
  0x13, 0x00, 0x00, 0x00, 0x73, 0x65, 0x72, 0x76, 0x69, 0x6E, 0x67, 0x5F,
  0x64, 0x65, 0x66, 0x61, 0x75, 0x6C, 0x74, 0x5F, 0x78, 0x3A, 0x30, 0x00,
  0x02, 0x00, 0x00, 0x00, 0x01, 0x00, 0x00, 0x00, 0x06, 0x00, 0x00, 0x00,
  0x02, 0x00, 0x00, 0x00, 0x24, 0x00, 0x00, 0x00, 0x04, 0x00, 0x00, 0x00,
  0xF0, 0xFF, 0xFF, 0xFF, 0x19, 0x00, 0x00, 0x00, 0x02, 0x00, 0x00, 0x00,
  0x00, 0x00, 0x00, 0x19, 0x0C, 0x00, 0x10, 0x00, 0x0F, 0x00, 0x00, 0x00,
  0x08, 0x00, 0x04, 0x00, 0x0C, 0x00, 0x00, 0x00, 0x09, 0x00, 0x00, 0x00,
  0x04, 0x00, 0x00, 0x00, 0x00, 0x00, 0x00, 0x09,
};
const unsigned int esp32s3_ripple_classifier_tflite_len = 4328;
