#include "model_data.h"

const unsigned char esp32s3_ripple_classifier_tflite[] = {
  0x20, 0x00, 0x00, 0x00, 0x54, 0x46, 0x4C, 0x33, 0x00, 0x00, 0x00, 0x00,
  0x14, 0x00, 0x20, 0x00, 0x1C, 0x00, 0x18, 0x00, 0x14, 0x00, 0x10, 0x00,
  0x0C, 0x00, 0x00, 0x00, 0x08, 0x00, 0x04, 0x00, 0x14, 0x00, 0x00, 0x00,
  0x1C, 0x00, 0x00, 0x00, 0x8C, 0x00, 0x00, 0x00, 0xE4, 0x00, 0x00, 0x00,
  0x04, 0x05, 0x00, 0x00, 0x14, 0x05, 0x00, 0x00, 0x70, 0x10, 0x00, 0x00,
  0x03, 0x00, 0x00, 0x00, 0x01, 0x00, 0x00, 0x00, 0x10, 0x00, 0x00, 0x00,
  0x00, 0x00, 0x0A, 0x00, 0x10, 0x00, 0x0C, 0x00, 0x08, 0x00, 0x04, 0x00,
  0x0A, 0x00, 0x00, 0x00, 0x0C, 0x00, 0x00, 0x00, 0x1C, 0x00, 0x00, 0x00,
  0x3C, 0x00, 0x00, 0x00, 0x0F, 0x00, 0x00, 0x00, 0x73, 0x65, 0x72, 0x76,
  0x69, 0x6E, 0x67, 0x5F, 0x64, 0x65, 0x66, 0x61, 0x75, 0x6C, 0x74, 0x00,
  0x01, 0x00, 0x00, 0x00, 0x04, 0x00, 0x00, 0x00, 0x9C, 0xFF, 0xFF, 0xFF,
  0x0A, 0x00, 0x00, 0x00, 0x04, 0x00, 0x00, 0x00, 0x08, 0x00, 0x00, 0x00,
  0x6F, 0x75, 0x74, 0x70, 0x75, 0x74, 0x5F, 0x30, 0x00, 0x00, 0x00, 0x00,
  0x01, 0x00, 0x00, 0x00, 0x04, 0x00, 0x00, 0x00, 0xE2, 0xFA, 0xFF, 0xFF,
  0x04, 0x00, 0x00, 0x00, 0x01, 0x00, 0x00, 0x00, 0x78, 0x00, 0x00, 0x00,
  0x02, 0x00, 0x00, 0x00, 0x34, 0x00, 0x00, 0x00, 0x04, 0x00, 0x00, 0x00,
  0xDC, 0xFF, 0xFF, 0xFF, 0x0D, 0x00, 0x00, 0x00, 0x04, 0x00, 0x00, 0x00,
  0x13, 0x00, 0x00, 0x00, 0x43, 0x4F, 0x4E, 0x56, 0x45, 0x52, 0x53, 0x49,
  0x4F, 0x4E, 0x5F, 0x4D, 0x45, 0x54, 0x41, 0x44, 0x41, 0x54, 0x41, 0x00,
  0x08, 0x00, 0x0C, 0x00, 0x08, 0x00, 0x04, 0x00, 0x08, 0x00, 0x00, 0x00,
  0x0C, 0x00, 0x00, 0x00, 0x04, 0x00, 0x00, 0x00, 0x13, 0x00, 0x00, 0x00,
  0x6D, 0x69, 0x6E, 0x5F, 0x72, 0x75, 0x6E, 0x74, 0x69, 0x6D, 0x65, 0x5F,
  0x76, 0x65, 0x72, 0x73, 0x69, 0x6F, 0x6E, 0x00, 0x0E, 0x00, 0x00, 0x00,
  0x1C, 0x04, 0x00, 0x00, 0x14, 0x04, 0x00, 0x00, 0xD4, 0x03, 0x00, 0x00,
  0x34, 0x03, 0x00, 0x00, 0xF4, 0x02, 0x00, 0x00, 0xC4, 0x01, 0x00, 0x00,
  0x54, 0x01, 0x00, 0x00, 0xB4, 0x00, 0x00, 0x00, 0xAC, 0x00, 0x00, 0x00,
  0xA4, 0x00, 0x00, 0x00, 0x9C, 0x00, 0x00, 0x00, 0x94, 0x00, 0x00, 0x00,
  0x74, 0x00, 0x00, 0x00, 0x04, 0x00, 0x00, 0x00, 0x8A, 0xFB, 0xFF, 0xFF,
  0x04, 0x00, 0x00, 0x00, 0x60, 0x00, 0x00, 0x00, 0x0C, 0x00, 0x00, 0x00,
  0x08, 0x00, 0x0E, 0x00, 0x08, 0x00, 0x04, 0x00, 0x08, 0x00, 0x00, 0x00,
  0x10, 0x00, 0x00, 0x00, 0x28, 0x00, 0x00, 0x00, 0x00, 0x00, 0x06, 0x00,
  0x08, 0x00, 0x04, 0x00, 0x06, 0x00, 0x00, 0x00, 0x04, 0x00, 0x00, 0x00,
  0x01, 0x00, 0x00, 0x00, 0xEB, 0x03, 0x00, 0x00, 0x0C, 0x00, 0x18, 0x00,
  0x14, 0x00, 0x10, 0x00, 0x0C, 0x00, 0x04, 0x00, 0x0C, 0x00, 0x00, 0x00,
  0xC4, 0x8A, 0x2C, 0x12, 0x3B, 0x66, 0x18, 0xBA, 0x02, 0x00, 0x00, 0x00,
  0x02, 0x00, 0x00, 0x00, 0x04, 0x00, 0x00, 0x00, 0x06, 0x00, 0x00, 0x00,
  0x32, 0x2E, 0x32, 0x30, 0x2E, 0x30, 0x00, 0x00, 0xF6, 0xFB, 0xFF, 0xFF,
  0x04, 0x00, 0x00, 0x00, 0x10, 0x00, 0x00, 0x00, 0x31, 0x2E, 0x31, 0x34,
  0x2E, 0x30, 0x00, 0x00, 0x00, 0x00, 0x00, 0x00, 0x00, 0x00, 0x00, 0x00,
  0xE0, 0xFB, 0xFF, 0xFF, 0xE4, 0xFB, 0xFF, 0xFF, 0xE8, 0xFB, 0xFF, 0xFF,
  0xEC, 0xFB, 0xFF, 0xFF, 0x22, 0xFC, 0xFF, 0xFF, 0x04, 0x00, 0x00, 0x00,
  0x90, 0x00, 0x00, 0x00, 0xE3, 0xE8, 0x12, 0x81, 0xE4, 0xFB, 0x0B, 0x14,
  0x7F, 0x83, 0xF8, 0x11, 0xEA, 0x09, 0x7F, 0xE3, 0xF4, 0xFC, 0x0C, 0x0C,
  0x7F, 0xBE, 0x0B, 0xFF, 0xE6, 0x03, 0x0C, 0xFD, 0x7F, 0xFB, 0x0E, 0xE5,
  0x81, 0xA8, 0x1A, 0x38, 0x0B, 0x04, 0x81, 0x19, 0xFE, 0xFF, 0xFB, 0x14,
  0x85, 0x7F, 0xBC, 0x00, 0x1D, 0x26, 0x81, 0xD3, 0x82, 0x03, 0xFF, 0xF6,
  0x7F, 0x2A, 0x55, 0xFE, 0x81, 0xBB, 0x53, 0x38, 0xEB, 0x2E, 0x09, 0xD2,
  0x7F, 0xF6, 0xD5, 0x13, 0x02, 0x09, 0xBB, 0x7F, 0x1B, 0x0A, 0x81, 0xB1,
  0x45, 0xA7, 0x8C, 0x20, 0x01, 0x05, 0x49, 0x81, 0xE8, 0xFE, 0x10, 0xE0,
  0x0E, 0x7F, 0xCF, 0xFA, 0xD4, 0xE7, 0x48, 0x81, 0x36, 0xEA, 0xF8, 0x19,
  0x81, 0xFF, 0xE7, 0xFC, 0x0D, 0x11, 0xE3, 0x7F, 0xFD, 0xFA, 0x0B, 0xD8,
  0xCD, 0x02, 0x81, 0xEA, 0x81, 0xFD, 0xB0, 0x5B, 0xC0, 0x07, 0x63, 0x00,
  0x81, 0xA7, 0xCD, 0x21, 0x1C, 0x1A, 0xDC, 0x7F, 0xFC, 0xF6, 0xE5, 0x06,
  0x4E, 0xA5, 0x7F, 0x00, 0xBE, 0xFC, 0xFF, 0xFF, 0x04, 0x00, 0x00, 0x00,
  0x60, 0x00, 0x00, 0x00, 0xF7, 0xFF, 0xFF, 0xFF, 0x05, 0x00, 0x00, 0x00,
  0xFE, 0xFF, 0xFF, 0xFF, 0xFD, 0xFF, 0xFF, 0xFF, 0x0C, 0x00, 0x00, 0x00,
  0x04, 0x00, 0x00, 0x00, 0x03, 0x00, 0x00, 0x00, 0xF7, 0xFF, 0xFF, 0xFF,
  0xF9, 0xFF, 0xFF, 0xFF, 0x0A, 0x00, 0x00, 0x00, 0x04, 0x00, 0x00, 0x00,
  0x02, 0x00, 0x00, 0x00, 0x01, 0x00, 0x00, 0x00, 0xFC, 0xFF, 0xFF, 0xFF,
  0x02, 0x00, 0x00, 0x00, 0xFC, 0xFF, 0xFF, 0xFF, 0x01, 0x00, 0x00, 0x00,
  0xFA, 0xFF, 0xFF, 0xFF, 0x03, 0x00, 0x00, 0x00, 0xF6, 0xFF, 0xFF, 0xFF,
  0x00, 0x00, 0x00, 0x00, 0xF1, 0xFF, 0xFF, 0xFF, 0xFF, 0xFF, 0xFF, 0xFF,
  0x0A, 0x00, 0x00, 0x00, 0x2A, 0xFD, 0xFF, 0xFF, 0x04, 0x00, 0x00, 0x00,
  0x20, 0x01, 0x00, 0x00, 0xBC, 0xA8, 0x06, 0x1D, 0x16, 0x9C, 0xCA, 0x09,
  0xAD, 0x78, 0xBB, 0x47, 0x07, 0x32, 0x8C, 0xEC, 0xEA, 0x81, 0x34, 0x20,
  0x47, 0xB7, 0x43, 0x4F, 0xDD, 0xF5, 0xDE, 0xCA, 0x38, 0x83, 0x9B, 0x70,
  0x19, 0x18, 0x4E, 0xD9, 0x6F, 0x9B, 0xC2, 0x23, 0x29, 0x9F, 0xE4, 0x1E,
  0x46, 0x43, 0x1A, 0x81, 0x08, 0xFA, 0x0C, 0x81, 0x06, 0x1C, 0x1F, 0x32,
  0x23, 0x38, 0xCD, 0x1E, 0x22, 0xDA, 0xBF, 0x4F, 0x2A, 0xE5, 0xCF, 0xDF,
  0x20, 0x8E, 0x2F, 0xC1, 0xA4, 0x5F, 0x69, 0x64, 0x3B, 0xD2, 0x90, 0x94,
  0xF1, 0x56, 0x11, 0x15, 0xAE, 0x0D, 0x7D, 0x1B, 0x1E, 0xB5, 0xCC, 0xB5,
  0xD9, 0x3C, 0xB1, 0x7F, 0x1D, 0xCF, 0xD5, 0x1D, 0xCD, 0x08, 0x21, 0x46,
  0x19, 0x1C, 0x97, 0x68, 0x03, 0xAA, 0xE5, 0xE1, 0xB3, 0x2B, 0x11, 0xCE,
  0x81, 0x2D, 0xBC, 0xA9, 0x32, 0xEA, 0xF3, 0x17, 0x6F, 0xE9, 0xF0, 0xD8,
  0xEF, 0xE5, 0xFA, 0x0D, 0x1C, 0x39, 0xB9, 0xE3, 0xE6, 0x3A, 0xE9, 0x3D,
  0xDA, 0x1A, 0x02, 0x7F, 0x7D, 0x28, 0x97, 0x8F, 0x8A, 0xB2, 0x09, 0x5D,
  0x23, 0xD9, 0x39, 0x7F, 0x9A, 0xDA, 0xF8, 0xBE, 0x3B, 0xBC, 0x07, 0x2D,
  0x34, 0x04, 0x5B, 0xD5, 0xAD, 0xD6, 0x81, 0xC7, 0xD7, 0x2E, 0x5F, 0xC6,
  0x4A, 0xC6, 0x49, 0xAC, 0x06, 0xC2, 0x11, 0xEE, 0x81, 0xE3, 0x49, 0x3E,
  0x18, 0xAD, 0x05, 0xE9, 0xED, 0x3E, 0xA4, 0xC0, 0x7F, 0xB1, 0x3E, 0xBB,
  0xEC, 0xBC, 0x29, 0xBC, 0x04, 0x0E, 0x14, 0x1B, 0xDF, 0x11, 0x22, 0x1F,
  0xAA, 0x00, 0xE4, 0x5C, 0x0C, 0xF5, 0xE3, 0x32, 0x26, 0x25, 0xDF, 0xD6,
  0xD3, 0x46, 0xFE, 0xD3, 0xFE, 0x81, 0xC9, 0xCC, 0xEC, 0x02, 0x25, 0xE9,
  0xFA, 0x03, 0xD8, 0x01, 0xC5, 0x3A, 0xFC, 0xF4, 0xA6, 0x04, 0x8B, 0x35,
  0x0E, 0xDE, 0xE4, 0x04, 0xA0, 0xB1, 0x81, 0xAF, 0x08, 0x33, 0x2A, 0x40,
  0x02, 0x00, 0xD6, 0x36, 0xFF, 0xDD, 0xF0, 0xDC, 0x20, 0x27, 0xAE, 0x67,
  0x16, 0x06, 0x15, 0x27, 0xE7, 0xD4, 0xF1, 0x1D, 0x05, 0x6A, 0xD0, 0xE2,
  0x15, 0x2B, 0x81, 0x21, 0x56, 0xFE, 0xFF, 0xFF, 0x04, 0x00, 0x00, 0x00,
  0x30, 0x00, 0x00, 0x00, 0x8D, 0x00, 0x00, 0x00, 0xEF, 0xFF, 0xFF, 0xFF,
  0x16, 0x00, 0x00, 0x00, 0x32, 0x00, 0x00, 0x00, 0xF5, 0xFF, 0xFF, 0xFF,
  0x12, 0x00, 0x00, 0x00, 0xA6, 0xFF, 0xFF, 0xFF, 0x80, 0x00, 0x00, 0x00,
  0xBF, 0x00, 0x00, 0x00, 0x08, 0x00, 0x00, 0x00, 0xF4, 0xFF, 0xFF, 0xFF,
  0xEB, 0xFF, 0xFF, 0xFF, 0x92, 0xFE, 0xFF, 0xFF, 0x04, 0x00, 0x00, 0x00,
  0x90, 0x00, 0x00, 0x00, 0xDE, 0xF7, 0x2D, 0xDB, 0x81, 0x5A, 0x0F, 0x0C,
  0xDC, 0x43, 0xBD, 0x30, 0xEB, 0xEB, 0xFD, 0x2B, 0xF1, 0x04, 0x02, 0xFD,
  0xE1, 0x10, 0x04, 0x81, 0x3B, 0x35, 0x29, 0x53, 0xA6, 0xF3, 0x05, 0x25,
  0xEA, 0x81, 0xF7, 0xEF, 0xFB, 0xD7, 0x07, 0x81, 0x02, 0x14, 0x12, 0xF9,
  0x22, 0x21, 0x2C, 0x09, 0xCB, 0x81, 0xD4, 0xF9, 0xE8, 0x17, 0x1B, 0xE9,
  0xF9, 0x23, 0xED, 0x1B, 0xE5, 0xF3, 0x14, 0xC0, 0xDC, 0x81, 0xFF, 0xD0,
  0xDC, 0xD2, 0x16, 0xD9, 0xF6, 0xDD, 0x03, 0x81, 0x0C, 0x26, 0x13, 0xF5,
  0x0A, 0x3A, 0x3D, 0xC0, 0xFE, 0x81, 0x07, 0xEC, 0x03, 0x0F, 0x03, 0xFD,
  0xFC, 0xF9, 0xFB, 0xA4, 0x58, 0xA3, 0xB9, 0x86, 0x11, 0xAB, 0x3A, 0xC3,
  0xC9, 0x81, 0x0B, 0xEA, 0xD4, 0x19, 0x0A, 0x0A, 0xBD, 0xA1, 0xE3, 0x81,
  0x0E, 0xDE, 0xF7, 0xF7, 0x81, 0x1F, 0xD9, 0x3A, 0xE4, 0x14, 0x24, 0xF7,
  0x10, 0xDC, 0xD0, 0x2D, 0x1D, 0x0D, 0x00, 0x00, 0xF8, 0x03, 0xE8, 0xFD,
  0x20, 0xB4, 0xFF, 0x81, 0x2E, 0xFF, 0xFF, 0xFF, 0x04, 0x00, 0x00, 0x00,
  0x30, 0x00, 0x00, 0x00, 0xCC, 0xFE, 0xFF, 0xFF, 0x65, 0xFE, 0xFF, 0xFF,
  0x9A, 0xFC, 0xFF, 0xFF, 0x84, 0xFF, 0xFF, 0xFF, 0x36, 0xFD, 0xFF, 0xFF,
  0xB1, 0xFE, 0xFF, 0xFF, 0x32, 0x03, 0x00, 0x00, 0x1B, 0xFF, 0xFF, 0xFF,
  0x96, 0x0C, 0x00, 0x00, 0x74, 0xFA, 0xFF, 0xFF, 0x65, 0xFB, 0xFF, 0xFF,
  0xB0, 0xFF, 0xFF, 0xFF, 0x38, 0xFF, 0xFF, 0xFF, 0x3C, 0xFF, 0xFF, 0xFF,
  0x0F, 0x00, 0x00, 0x00, 0x4D, 0x4C, 0x49, 0x52, 0x20, 0x43, 0x6F, 0x6E,
  0x76, 0x65, 0x72, 0x74, 0x65, 0x64, 0x2E, 0x00, 0x01, 0x00, 0x00, 0x00,
  0x14, 0x00, 0x00, 0x00, 0x00, 0x00, 0x0E, 0x00, 0x18, 0x00, 0x14, 0x00,
  0x10, 0x00, 0x0C, 0x00, 0x08, 0x00, 0x04, 0x00, 0x0E, 0x00, 0x00, 0x00,
  0x14, 0x00, 0x00, 0x00, 0x1C, 0x00, 0x00, 0x00, 0x28, 0x01, 0x00, 0x00,
  0x2C, 0x01, 0x00, 0x00, 0x30, 0x01, 0x00, 0x00, 0x04, 0x00, 0x00, 0x00,
  0x6D, 0x61, 0x69, 0x6E, 0x00, 0x00, 0x00, 0x00, 0x04, 0x00, 0x00, 0x00,
  0xD0, 0x00, 0x00, 0x00, 0x88, 0x00, 0x00, 0x00, 0x50, 0x00, 0x00, 0x00,
  0x14, 0x00, 0x00, 0x00, 0x00, 0x00, 0x0E, 0x00, 0x1A, 0x00, 0x14, 0x00,
  0x10, 0x00, 0x0C, 0x00, 0x0B, 0x00, 0x04, 0x00, 0x0E, 0x00, 0x00, 0x00,
  0x1C, 0x00, 0x00, 0x00, 0x00, 0x00, 0x00, 0x09, 0x1C, 0x00, 0x00, 0x00,
  0x20, 0x00, 0x00, 0x00, 0x01, 0x00, 0x00, 0x00, 0x00, 0x00, 0x06, 0x00,
  0x08, 0x00, 0x04, 0x00, 0x06, 0x00, 0x00, 0x00, 0x00, 0x00, 0x80, 0x3F,
  0x01, 0x00, 0x00, 0x00, 0x0A, 0x00, 0x00, 0x00, 0x01, 0x00, 0x00, 0x00,
  0x09, 0x00, 0x00, 0x00, 0x96, 0xFF, 0xFF, 0xFF, 0x14, 0x00, 0x00, 0x00,
  0x00, 0x00, 0x00, 0x08, 0x10, 0x00, 0x00, 0x00, 0x14, 0x00, 0x00, 0x00,
  0x04, 0x00, 0x04, 0x00, 0x04, 0x00, 0x00, 0x00, 0x01, 0x00, 0x00, 0x00,
  0x09, 0x00, 0x00, 0x00, 0x03, 0x00, 0x00, 0x00, 0x08, 0x00, 0x00, 0x00,
  0x02, 0x00, 0x00, 0x00, 0x01, 0x00, 0x00, 0x00, 0xCA, 0xFF, 0xFF, 0xFF,
  0x10, 0x00, 0x00, 0x00, 0x00, 0x00, 0x00, 0x08, 0x10, 0x00, 0x00, 0x00,
  0x14, 0x00, 0x00, 0x00, 0xBA, 0xFF, 0xFF, 0xFF, 0x00, 0x00, 0x00, 0x01,
  0x01, 0x00, 0x00, 0x00, 0x08, 0x00, 0x00, 0x00, 0x03, 0x00, 0x00, 0x00,
  0x07, 0x00, 0x00, 0x00, 0x04, 0x00, 0x00, 0x00, 0x03, 0x00, 0x00, 0x00,
  0x00, 0x00, 0x0E, 0x00, 0x16, 0x00, 0x00, 0x00, 0x10, 0x00, 0x0C, 0x00,
  0x0B, 0x00, 0x04, 0x00, 0x0E, 0x00, 0x00, 0x00, 0x18, 0x00, 0x00, 0x00,
  0x00, 0x00, 0x00, 0x08, 0x18, 0x00, 0x00, 0x00, 0x1C, 0x00, 0x00, 0x00,
  0x00, 0x00, 0x06, 0x00, 0x08, 0x00, 0x07, 0x00, 0x06, 0x00, 0x00, 0x00,
  0x00, 0x00, 0x00, 0x01, 0x01, 0x00, 0x00, 0x00, 0x07, 0x00, 0x00, 0x00,
  0x03, 0x00, 0x00, 0x00, 0x00, 0x00, 0x00, 0x00, 0x06, 0x00, 0x00, 0x00,
  0x05, 0x00, 0x00, 0x00, 0x01, 0x00, 0x00, 0x00, 0x0A, 0x00, 0x00, 0x00,
  0x01, 0x00, 0x00, 0x00, 0x00, 0x00, 0x00, 0x00, 0x0B, 0x00, 0x00, 0x00,
  0x80, 0x09, 0x00, 0x00, 0x80, 0x08, 0x00, 0x00, 0x7C, 0x07, 0x00, 0x00,
  0x98, 0x06, 0x00, 0x00, 0xAC, 0x05, 0x00, 0x00, 0x38, 0x04, 0x00, 0x00,
  0xBC, 0x02, 0x00, 0x00, 0xF8, 0x01, 0x00, 0x00, 0x2C, 0x01, 0x00, 0x00,
  0x80, 0x00, 0x00, 0x00, 0x04, 0x00, 0x00, 0x00, 0xC2, 0xF6, 0xFF, 0xFF,
  0x00, 0x00, 0x00, 0x01, 0x18, 0x00, 0x00, 0x00, 0x20, 0x00, 0x00, 0x00,
  0x3C, 0x00, 0x00, 0x00, 0x0B, 0x00, 0x00, 0x00, 0x00, 0x00, 0x00, 0x09,
  0x50, 0x00, 0x00, 0x00, 0x02, 0x00, 0x00, 0x00, 0xFF, 0xFF, 0xFF, 0xFF,
  0x0C, 0x00, 0x00, 0x00, 0xAC, 0xF6, 0xFF, 0xFF, 0x08, 0x00, 0x00, 0x00,
  0x10, 0x00, 0x00, 0x00, 0x01, 0x00, 0x00, 0x00, 0x80, 0xFF, 0xFF, 0xFF,
  0xFF, 0xFF, 0xFF, 0xFF, 0x01, 0x00, 0x00, 0x00, 0x00, 0x00, 0x80, 0x3B,
  0x1B, 0x00, 0x00, 0x00, 0x53, 0x74, 0x61, 0x74, 0x65, 0x66, 0x75, 0x6C,
  0x50, 0x61, 0x72, 0x74, 0x69, 0x74, 0x69, 0x6F, 0x6E, 0x65, 0x64, 0x43,
  0x61, 0x6C, 0x6C, 0x5F, 0x31, 0x3A, 0x30, 0x00, 0x02, 0x00, 0x00, 0x00,
  0x01, 0x00, 0x00, 0x00, 0x0C, 0x00, 0x00, 0x00, 0x3A, 0xF7, 0xFF, 0xFF,
  0x00, 0x00, 0x00, 0x01, 0x18, 0x00, 0x00, 0x00, 0x20, 0x00, 0x00, 0x00,
  0x40, 0x00, 0x00, 0x00, 0x0A, 0x00, 0x00, 0x00, 0x00, 0x00, 0x00, 0x09,
  0x80, 0x00, 0x00, 0x00, 0x02, 0x00, 0x00, 0x00, 0xFF, 0xFF, 0xFF, 0xFF,
  0x0C, 0x00, 0x00, 0x00, 0x24, 0xF7, 0xFF, 0xFF, 0x08, 0x00, 0x00, 0x00,
  0x14, 0x00, 0x00, 0x00, 0x01, 0x00, 0x00, 0x00, 0x59, 0x00, 0x00, 0x00,
  0x00, 0x00, 0x00, 0x00, 0x00, 0x00, 0x00, 0x00, 0x01, 0x00, 0x00, 0x00,
  0xA7, 0x03, 0x34, 0x3F, 0x46, 0x00, 0x00, 0x00, 0x72, 0x69, 0x70, 0x70,
  0x6C, 0x65, 0x5F, 0x6D, 0x63, 0x75, 0x5F, 0x74, 0x69, 0x6E, 0x79, 0x5F,
  0x31, 0x2F, 0x64, 0x65, 0x6E, 0x73, 0x65, 0x5F, 0x32, 0x5F, 0x31, 0x2F,
  0x4D, 0x61, 0x74, 0x4D, 0x75, 0x6C, 0x3B, 0x72, 0x69, 0x70, 0x70, 0x6C,
  0x65, 0x5F, 0x6D, 0x63, 0x75, 0x5F, 0x74, 0x69, 0x6E, 0x79, 0x5F, 0x31,
  0x2F, 0x64, 0x65, 0x6E, 0x73, 0x65, 0x5F, 0x32, 0x5F, 0x31, 0x2F, 0x42,
  0x69, 0x61, 0x73, 0x41, 0x64, 0x64, 0x00, 0x00, 0x02, 0x00, 0x00, 0x00,
  0x01, 0x00, 0x00, 0x00, 0x0C, 0x00, 0x00, 0x00, 0xE2, 0xF7, 0xFF, 0xFF,
  0x00, 0x00, 0x00, 0x01, 0x18, 0x00, 0x00, 0x00, 0x20, 0x00, 0x00, 0x00,
  0x40, 0x00, 0x00, 0x00, 0x09, 0x00, 0x00, 0x00, 0x00, 0x00, 0x00, 0x09,
  0xA0, 0x00, 0x00, 0x00, 0x02, 0x00, 0x00, 0x00, 0xFF, 0xFF, 0xFF, 0xFF,
  0x0C, 0x00, 0x00, 0x00, 0xCC, 0xF7, 0xFF, 0xFF, 0x08, 0x00, 0x00, 0x00,
  0x14, 0x00, 0x00, 0x00, 0x01, 0x00, 0x00, 0x00, 0x80, 0xFF, 0xFF, 0xFF,
  0xFF, 0xFF, 0xFF, 0xFF, 0x00, 0x00, 0x00, 0x00, 0x01, 0x00, 0x00, 0x00,
  0x08, 0x9A, 0x7C, 0x3E, 0x67, 0x00, 0x00, 0x00, 0x72, 0x69, 0x70, 0x70,
  0x6C, 0x65, 0x5F, 0x6D, 0x63, 0x75, 0x5F, 0x74, 0x69, 0x6E, 0x79, 0x5F,
  0x31, 0x2F, 0x64, 0x65, 0x6E, 0x73, 0x65, 0x5F, 0x31, 0x5F, 0x32, 0x2F,
  0x4D, 0x61, 0x74, 0x4D, 0x75, 0x6C, 0x3B, 0x72, 0x69, 0x70, 0x70, 0x6C,
  0x65, 0x5F, 0x6D, 0x63, 0x75, 0x5F, 0x74, 0x69, 0x6E, 0x79, 0x5F, 0x31,
  0x2F, 0x64, 0x65, 0x6E, 0x73, 0x65, 0x5F, 0x31, 0x5F, 0x32, 0x2F, 0x52,
  0x65, 0x6C, 0x75, 0x3B, 0x72, 0x69, 0x70, 0x70, 0x6C, 0x65, 0x5F, 0x6D,
  0x63, 0x75, 0x5F, 0x74, 0x69, 0x6E, 0x79, 0x5F, 0x31, 0x2F, 0x64, 0x65,
  0x6E, 0x73, 0x65, 0x5F, 0x31, 0x5F, 0x32, 0x2F, 0x42, 0x69, 0x61, 0x73,
  0x41, 0x64, 0x64, 0x00, 0x02, 0x00, 0x00, 0x00, 0x01, 0x00, 0x00, 0x00,
  0x0C, 0x00, 0x00, 0x00, 0xAA, 0xF8, 0xFF, 0xFF, 0x00, 0x00, 0x00, 0x01,
  0x18, 0x00, 0x00, 0x00, 0x20, 0x00, 0x00, 0x00, 0x3C, 0x00, 0x00, 0x00,
  0x08, 0x00, 0x00, 0x00, 0x00, 0x00, 0x00, 0x09, 0x98, 0x00, 0x00, 0x00,
  0x02, 0x00, 0x00, 0x00, 0xFF, 0xFF, 0xFF, 0xFF, 0x18, 0x00, 0x00, 0x00,
  0x94, 0xF8, 0xFF, 0xFF, 0x08, 0x00, 0x00, 0x00, 0x10, 0x00, 0x00, 0x00,
  0x01, 0x00, 0x00, 0x00, 0x80, 0xFF, 0xFF, 0xFF, 0xFF, 0xFF, 0xFF, 0xFF,
  0x01, 0x00, 0x00, 0x00, 0x72, 0x83, 0x06, 0x40, 0x61, 0x00, 0x00, 0x00,
  0x72, 0x69, 0x70, 0x70, 0x6C, 0x65, 0x5F, 0x6D, 0x63, 0x75, 0x5F, 0x74,
  0x69, 0x6E, 0x79, 0x5F, 0x31, 0x2F, 0x64, 0x65, 0x6E, 0x73, 0x65, 0x5F,
  0x31, 0x2F, 0x4D, 0x61, 0x74, 0x4D, 0x75, 0x6C, 0x3B, 0x72, 0x69, 0x70,
  0x70, 0x6C, 0x65, 0x5F, 0x6D, 0x63, 0x75, 0x5F, 0x74, 0x69, 0x6E, 0x79,
  0x5F, 0x31, 0x2F, 0x64, 0x65, 0x6E, 0x73, 0x65, 0x5F, 0x31, 0x2F, 0x52,
  0x65, 0x6C, 0x75, 0x3B, 0x72, 0x69, 0x70, 0x70, 0x6C, 0x65, 0x5F, 0x6D,
  0x63, 0x75, 0x5F, 0x74, 0x69, 0x6E, 0x79, 0x5F, 0x31, 0x2F, 0x64, 0x65,
  0x6E, 0x73, 0x65, 0x5F, 0x31, 0x2F, 0x42, 0x69, 0x61, 0x73, 0x41, 0x64,
  0x64, 0x00, 0x00, 0x00, 0x02, 0x00, 0x00, 0x00, 0x01, 0x00, 0x00, 0x00,
  0x18, 0x00, 0x00, 0x00, 0x66, 0xFA, 0xFF, 0xFF, 0x00, 0x00, 0x00, 0x01,
  0x14, 0x00, 0x00, 0x00, 0x48, 0x01, 0x00, 0x00, 0x07, 0x00, 0x00, 0x00,
  0x00, 0x00, 0x00, 0x09, 0x54, 0x01, 0x00, 0x00, 0x44, 0xF9, 0xFF, 0xFF,
  0x08, 0x00, 0x00, 0x00, 0xCC, 0x00, 0x00, 0x00, 0x18, 0x00, 0x00, 0x00,
  0x00, 0x00, 0x00, 0x00, 0x00, 0x00, 0x00, 0x00, 0x00, 0x00, 0x00, 0x00,
  0x00, 0x00, 0x00, 0x00, 0x00, 0x00, 0x00, 0x00, 0x00, 0x00, 0x00, 0x00,
  0x00, 0x00, 0x00, 0x00, 0x00, 0x00, 0x00, 0x00, 0x00, 0x00, 0x00, 0x00,
  0x00, 0x00, 0x00, 0x00, 0x00, 0x00, 0x00, 0x00, 0x00, 0x00, 0x00, 0x00,
  0x00, 0x00, 0x00, 0x00, 0x00, 0x00, 0x00, 0x00, 0x00, 0x00, 0x00, 0x00,
  0x00, 0x00, 0x00, 0x00, 0x00, 0x00, 0x00, 0x00, 0x00, 0x00, 0x00, 0x00,
  0x00, 0x00, 0x00, 0x00, 0x00, 0x00, 0x00, 0x00, 0x00, 0x00, 0x00, 0x00,
  0x00, 0x00, 0x00, 0x00, 0x00, 0x00, 0x00, 0x00, 0x00, 0x00, 0x00, 0x00,
  0x00, 0x00, 0x00, 0x00, 0x00, 0x00, 0x00, 0x00, 0x00, 0x00, 0x00, 0x00,
  0x00, 0x00, 0x00, 0x00, 0x00, 0x00, 0x00, 0x00, 0x00, 0x00, 0x00, 0x00,
  0x00, 0x00, 0x00, 0x00, 0x00, 0x00, 0x00, 0x00, 0x00, 0x00, 0x00, 0x00,
  0x00, 0x00, 0x00, 0x00, 0x00, 0x00, 0x00, 0x00, 0x00, 0x00, 0x00, 0x00,
  0x00, 0x00, 0x00, 0x00, 0x00, 0x00, 0x00, 0x00, 0x00, 0x00, 0x00, 0x00,
  0x00, 0x00, 0x00, 0x00, 0x00, 0x00, 0x00, 0x00, 0x00, 0x00, 0x00, 0x00,
  0x00, 0x00, 0x00, 0x00, 0x00, 0x00, 0x00, 0x00, 0x00, 0x00, 0x00, 0x00,
  0x00, 0x00, 0x00, 0x00, 0x00, 0x00, 0x00, 0x00, 0x00, 0x00, 0x00, 0x00,
  0x00, 0x00, 0x00, 0x00, 0x18, 0x00, 0x00, 0x00, 0x84, 0x2B, 0x10, 0x3C,
  0xD0, 0x3D, 0x83, 0x3C, 0xF9, 0xFC, 0xDF, 0x3C, 0xD3, 0xE7, 0xBD, 0x3C,
  0x21, 0xDF, 0x37, 0x3C, 0xA4, 0xBB, 0xD0, 0x3B, 0x30, 0x3F, 0xB5, 0x3C,
  0x6C, 0x79, 0x4D, 0x3C, 0xC1, 0xE4, 0xE7, 0x3B, 0xA2, 0x01, 0x27, 0x3C,
  0x3C, 0xFF, 0x9D, 0x3B, 0x89, 0xF3, 0xCA, 0x3B, 0xBB, 0x62, 0xCC, 0x3C,
  0x1F, 0xB1, 0xB2, 0x3B, 0xD8, 0x13, 0xF0, 0x3C, 0xDC, 0xF8, 0x52, 0x3C,
  0x84, 0x1F, 0x24, 0x3C, 0x7A, 0x5A, 0x35, 0x3C, 0xDB, 0x8A, 0x82, 0x3C,
  0xE1, 0xA2, 0x09, 0x3C, 0x4A, 0xC4, 0xD1, 0x3B, 0x0B, 0x88, 0x95, 0x3B,
  0x7C, 0x94, 0x49, 0x3C, 0x3D, 0xBB, 0x0F, 0x3C, 0x12, 0x00, 0x00, 0x00,
  0x74, 0x66, 0x6C, 0x2E, 0x70, 0x73, 0x65, 0x75, 0x64, 0x6F, 0x5F, 0x71,
  0x63, 0x6F, 0x6E, 0x73, 0x74, 0x35, 0x00, 0x00, 0x02, 0x00, 0x00, 0x00,
  0x18, 0x00, 0x00, 0x00, 0x06, 0x00, 0x00, 0x00, 0xDE, 0xFB, 0xFF, 0xFF,
  0x00, 0x00, 0x00, 0x01, 0x14, 0x00, 0x00, 0x00, 0x44, 0x01, 0x00, 0x00,
  0x06, 0x00, 0x00, 0x00, 0x00, 0x00, 0x00, 0x02, 0x50, 0x01, 0x00, 0x00,
  0xBC, 0xFA, 0xFF, 0xFF, 0x08, 0x00, 0x00, 0x00, 0xC8, 0x00, 0x00, 0x00,
  0x18, 0x00, 0x00, 0x00, 0x00, 0x00, 0x00, 0x00, 0x00, 0x00, 0x00, 0x00,
  0x00, 0x00, 0x00, 0x00, 0x00, 0x00, 0x00, 0x00, 0x00, 0x00, 0x00, 0x00,
  0x00, 0x00, 0x00, 0x00, 0x00, 0x00, 0x00, 0x00, 0x00, 0x00, 0x00, 0x00,
  0x00, 0x00, 0x00, 0x00, 0x00, 0x00, 0x00, 0x00, 0x00, 0x00, 0x00, 0x00,
  0x00, 0x00, 0x00, 0x00, 0x00, 0x00, 0x00, 0x00, 0x00, 0x00, 0x00, 0x00,
  0x00, 0x00, 0x00, 0x00, 0x00, 0x00, 0x00, 0x00, 0x00, 0x00, 0x00, 0x00,
  0x00, 0x00, 0x00, 0x00, 0x00, 0x00, 0x00, 0x00, 0x00, 0x00, 0x00, 0x00,
  0x00, 0x00, 0x00, 0x00, 0x00, 0x00, 0x00, 0x00, 0x00, 0x00, 0x00, 0x00,
  0x00, 0x00, 0x00, 0x00, 0x00, 0x00, 0x00, 0x00, 0x00, 0x00, 0x00, 0x00,
  0x00, 0x00, 0x00, 0x00, 0x00, 0x00, 0x00, 0x00, 0x00, 0x00, 0x00, 0x00,
  0x00, 0x00, 0x00, 0x00, 0x00, 0x00, 0x00, 0x00, 0x00, 0x00, 0x00, 0x00,
  0x00, 0x00, 0x00, 0x00, 0x00, 0x00, 0x00, 0x00, 0x00, 0x00, 0x00, 0x00,
  0x00, 0x00, 0x00, 0x00, 0x00, 0x00, 0x00, 0x00, 0x00, 0x00, 0x00, 0x00,
  0x00, 0x00, 0x00, 0x00, 0x00, 0x00, 0x00, 0x00, 0x00, 0x00, 0x00, 0x00,
  0x00, 0x00, 0x00, 0x00, 0x00, 0x00, 0x00, 0x00, 0x00, 0x00, 0x00, 0x00,
  0x00, 0x00, 0x00, 0x00, 0x00, 0x00, 0x00, 0x00, 0x00, 0x00, 0x00, 0x00,
  0x00, 0x00, 0x00, 0x00, 0x18, 0x00, 0x00, 0x00, 0x25, 0x0E, 0xC5, 0x3D,
  0x5C, 0x62, 0x33, 0x3E, 0x90, 0x13, 0x99, 0x3E, 0xAF, 0xC8, 0x81, 0x3E,
  0x09, 0x52, 0xFB, 0x3D, 0x9B, 0xA6, 0x8E, 0x3D, 0x9C, 0xBB, 0x77, 0x3E,
  0x7E, 0x6C, 0x0C, 0x3E, 0xA4, 0x7A, 0x9E, 0x3D, 0xC5, 0x44, 0xE4, 0x3D,
  0x53, 0xF4, 0x57, 0x3D, 0x15, 0xB3, 0x8A, 0x3D, 0x08, 0xAE, 0x8B, 0x3E,
  0x9D, 0x3D, 0x74, 0x3D, 0x73, 0x12, 0xA4, 0x3E, 0x5A, 0x2E, 0x10, 0x3E,
  0xE4, 0x53, 0xE0, 0x3D, 0xE8, 0xE0, 0xF7, 0x3D, 0xC1, 0x6D, 0x32, 0x3E,
  0xF1, 0x1F, 0xBC, 0x3D, 0x79, 0x5B, 0x8F, 0x3D, 0x27, 0x62, 0x4C, 0x3D,
  0x2C, 0xC3, 0x09, 0x3E, 0xAF, 0x74, 0xC4, 0x3D, 0x12, 0x00, 0x00, 0x00,
  0x74, 0x66, 0x6C, 0x2E, 0x70, 0x73, 0x65, 0x75, 0x64, 0x6F, 0x5F, 0x71,
  0x63, 0x6F, 0x6E, 0x73, 0x74, 0x34, 0x00, 0x00, 0x01, 0x00, 0x00, 0x00,
  0x18, 0x00, 0x00, 0x00, 0x4E, 0xFD, 0xFF, 0xFF, 0x00, 0x00, 0x00, 0x01,
  0x14, 0x00, 0x00, 0x00, 0xB8, 0x00, 0x00, 0x00, 0x05, 0x00, 0x00, 0x00,
  0x00, 0x00, 0x00, 0x09, 0xC4, 0x00, 0x00, 0x00, 0x2C, 0xFC, 0xFF, 0xFF,
  0x08, 0x00, 0x00, 0x00, 0x6C, 0x00, 0x00, 0x00, 0x0C, 0x00, 0x00, 0x00,
  0x00, 0x00, 0x00, 0x00, 0x00, 0x00, 0x00, 0x00, 0x00, 0x00, 0x00, 0x00,
  0x00, 0x00, 0x00, 0x00, 0x00, 0x00, 0x00, 0x00, 0x00, 0x00, 0x00, 0x00,
  0x00, 0x00, 0x00, 0x00, 0x00, 0x00, 0x00, 0x00, 0x00, 0x00, 0x00, 0x00,
  0x00, 0x00, 0x00, 0x00, 0x00, 0x00, 0x00, 0x00, 0x00, 0x00, 0x00, 0x00,
  0x00, 0x00, 0x00, 0x00, 0x00, 0x00, 0x00, 0x00, 0x00, 0x00, 0x00, 0x00,
  0x00, 0x00, 0x00, 0x00, 0x00, 0x00, 0x00, 0x00, 0x00, 0x00, 0x00, 0x00,
  0x00, 0x00, 0x00, 0x00, 0x00, 0x00, 0x00, 0x00, 0x00, 0x00, 0x00, 0x00,
  0x00, 0x00, 0x00, 0x00, 0x00, 0x00, 0x00, 0x00, 0x00, 0x00, 0x00, 0x00,
  0x00, 0x00, 0x00, 0x00, 0x0C, 0x00, 0x00, 0x00, 0x04, 0x1D, 0x8E, 0x3B,
  0x89, 0x6F, 0x74, 0x3B, 0x25, 0x0B, 0x93, 0x3B, 0xF2, 0x1D, 0x73, 0x3B,
  0xDE, 0x47, 0xC3, 0x3B, 0x43, 0x35, 0xB6, 0x3B, 0x6B, 0x2A, 0x60, 0x3B,
  0x09, 0x5C, 0x90, 0x3B, 0xDD, 0xEB, 0x93, 0x3B, 0x92, 0xF8, 0x10, 0x3C,
  0x67, 0x5E, 0x58, 0x3B, 0x2E, 0xEB, 0xF8, 0x3B, 0x12, 0x00, 0x00, 0x00,
  0x74, 0x66, 0x6C, 0x2E, 0x70, 0x73, 0x65, 0x75, 0x64, 0x6F, 0x5F, 0x71,
  0x63, 0x6F, 0x6E, 0x73, 0x74, 0x33, 0x00, 0x00, 0x02, 0x00, 0x00, 0x00,
  0x0C, 0x00, 0x00, 0x00, 0x18, 0x00, 0x00, 0x00, 0x36, 0xFE, 0xFF, 0xFF,
  0x00, 0x00, 0x00, 0x01, 0x14, 0x00, 0x00, 0x00, 0xB4, 0x00, 0x00, 0x00,
  0x04, 0x00, 0x00, 0x00, 0x00, 0x00, 0x00, 0x02, 0xC0, 0x00, 0x00, 0x00,
  0x14, 0xFD, 0xFF, 0xFF, 0x08, 0x00, 0x00, 0x00, 0x68, 0x00, 0x00, 0x00,
  0x0C, 0x00, 0x00, 0x00, 0x00, 0x00, 0x00, 0x00, 0x00, 0x00, 0x00, 0x00,
  0x00, 0x00, 0x00, 0x00, 0x00, 0x00, 0x00, 0x00, 0x00, 0x00, 0x00, 0x00,
  0x00, 0x00, 0x00, 0x00, 0x00, 0x00, 0x00, 0x00, 0x00, 0x00, 0x00, 0x00,
  0x00, 0x00, 0x00, 0x00, 0x00, 0x00, 0x00, 0x00, 0x00, 0x00, 0x00, 0x00,
  0x00, 0x00, 0x00, 0x00, 0x00, 0x00, 0x00, 0x00, 0x00, 0x00, 0x00, 0x00,
  0x00, 0x00, 0x00, 0x00, 0x00, 0x00, 0x00, 0x00, 0x00, 0x00, 0x00, 0x00,
  0x00, 0x00, 0x00, 0x00, 0x00, 0x00, 0x00, 0x00, 0x00, 0x00, 0x00, 0x00,
  0x00, 0x00, 0x00, 0x00, 0x00, 0x00, 0x00, 0x00, 0x00, 0x00, 0x00, 0x00,
  0x00, 0x00, 0x00, 0x00, 0x0C, 0x00, 0x00, 0x00, 0x50, 0x58, 0x15, 0x3C,
  0xE4, 0x6F, 0x00, 0x3C, 0xAB, 0x86, 0x1A, 0x3C, 0x03, 0x7D, 0xFF, 0x3B,
  0xC6, 0x37, 0x4D, 0x3C, 0xDF, 0x7A, 0x3F, 0x3C, 0x9B, 0x92, 0xEB, 0x3B,
  0x98, 0xB4, 0x17, 0x3C, 0xD2, 0x72, 0x1B, 0x3C, 0x18, 0x59, 0x98, 0x3C,
  0x05, 0x61, 0xE3, 0x3B, 0xE9, 0xCA, 0x82, 0x3C, 0x12, 0x00, 0x00, 0x00,
  0x74, 0x66, 0x6C, 0x2E, 0x70, 0x73, 0x65, 0x75, 0x64, 0x6F, 0x5F, 0x71,
  0x63, 0x6F, 0x6E, 0x73, 0x74, 0x32, 0x00, 0x00, 0x01, 0x00, 0x00, 0x00,
  0x0C, 0x00, 0x00, 0x00, 0x16, 0xFF, 0xFF, 0xFF, 0x00, 0x00, 0x00, 0x01,
  0x14, 0x00, 0x00, 0x00, 0xB8, 0x00, 0x00, 0x00, 0x03, 0x00, 0x00, 0x00,
  0x00, 0x00, 0x00, 0x09, 0xC4, 0x00, 0x00, 0x00, 0xF4, 0xFD, 0xFF, 0xFF,
  0x08, 0x00, 0x00, 0x00, 0x6C, 0x00, 0x00, 0x00, 0x0C, 0x00, 0x00, 0x00,
  0x00, 0x00, 0x00, 0x00, 0x00, 0x00, 0x00, 0x00, 0x00, 0x00, 0x00, 0x00,
  0x00, 0x00, 0x00, 0x00, 0x00, 0x00, 0x00, 0x00, 0x00, 0x00, 0x00, 0x00,
  0x00, 0x00, 0x00, 0x00, 0x00, 0x00, 0x00, 0x00, 0x00, 0x00, 0x00, 0x00,
  0x00, 0x00, 0x00, 0x00, 0x00, 0x00, 0x00, 0x00, 0x00, 0x00, 0x00, 0x00,
  0x00, 0x00, 0x00, 0x00, 0x00, 0x00, 0x00, 0x00, 0x00, 0x00, 0x00, 0x00,
  0x00, 0x00, 0x00, 0x00, 0x00, 0x00, 0x00, 0x00, 0x00, 0x00, 0x00, 0x00,
  0x00, 0x00, 0x00, 0x00, 0x00, 0x00, 0x00, 0x00, 0x00, 0x00, 0x00, 0x00,
  0x00, 0x00, 0x00, 0x00, 0x00, 0x00, 0x00, 0x00, 0x00, 0x00, 0x00, 0x00,
  0x00, 0x00, 0x00, 0x00, 0x0C, 0x00, 0x00, 0x00, 0x62, 0x68, 0xC0, 0x3B,
  0x35, 0x0B, 0xA2, 0x3C, 0x0D, 0x41, 0x0D, 0x3C, 0x46, 0x01, 0x24, 0x3C,
  0x99, 0x18, 0x23, 0x3C, 0x7A, 0xC7, 0x9C, 0x3C, 0x23, 0xDC, 0xF6, 0x3B,
  0xB0, 0x7A, 0xA5, 0x3C, 0xE0, 0x4E, 0x9B, 0x3B, 0xFB, 0x09, 0x85, 0x3C,
  0xF6, 0x5C, 0xD3, 0x3B, 0xAE, 0xE5, 0x9E, 0x3C, 0x12, 0x00, 0x00, 0x00,
  0x74, 0x66, 0x6C, 0x2E, 0x70, 0x73, 0x65, 0x75, 0x64, 0x6F, 0x5F, 0x71,
  0x63, 0x6F, 0x6E, 0x73, 0x74, 0x31, 0x00, 0x00, 0x02, 0x00, 0x00, 0x00,
  0x0C, 0x00, 0x00, 0x00, 0x0C, 0x00, 0x00, 0x00, 0x00, 0x00, 0x16, 0x00,
  0x1C, 0x00, 0x18, 0x00, 0x17, 0x00, 0x10, 0x00, 0x0C, 0x00, 0x08, 0x00,
  0x00, 0x00, 0x00, 0x00, 0x00, 0x00, 0x07, 0x00, 0x16, 0x00, 0x00, 0x00,
  0x00, 0x00, 0x00, 0x01, 0x14, 0x00, 0x00, 0x00, 0xB8, 0x00, 0x00, 0x00,
  0x02, 0x00, 0x00, 0x00, 0x00, 0x00, 0x00, 0x02, 0xC4, 0x00, 0x00, 0x00,
  0xF4, 0xFE, 0xFF, 0xFF, 0x08, 0x00, 0x00, 0x00, 0x6C, 0x00, 0x00, 0x00,
  0x0C, 0x00, 0x00, 0x00, 0x00, 0x00, 0x00, 0x00, 0x00, 0x00, 0x00, 0x00,
  0x00, 0x00, 0x00, 0x00, 0x00, 0x00, 0x00, 0x00, 0x00, 0x00, 0x00, 0x00,
  0x00, 0x00, 0x00, 0x00, 0x00, 0x00, 0x00, 0x00, 0x00, 0x00, 0x00, 0x00,
  0x00, 0x00, 0x00, 0x00, 0x00, 0x00, 0x00, 0x00, 0x00, 0x00, 0x00, 0x00,
  0x00, 0x00, 0x00, 0x00, 0x00, 0x00, 0x00, 0x00, 0x00, 0x00, 0x00, 0x00,
  0x00, 0x00, 0x00, 0x00, 0x00, 0x00, 0x00, 0x00, 0x00, 0x00, 0x00, 0x00,
  0x00, 0x00, 0x00, 0x00, 0x00, 0x00, 0x00, 0x00, 0x00, 0x00, 0x00, 0x00,
  0x00, 0x00, 0x00, 0x00, 0x00, 0x00, 0x00, 0x00, 0x00, 0x00, 0x00, 0x00,
  0x00, 0x00, 0x00, 0x00, 0x00, 0x00, 0x00, 0x00, 0x0C, 0x00, 0x00, 0x00,
  0x85, 0xDA, 0xBD, 0x3A, 0x88, 0xE4, 0x9F, 0x3B, 0x06, 0x61, 0x0B, 0x3B,
  0xEF, 0xD3, 0x21, 0x3B, 0x59, 0xEE, 0x20, 0x3B, 0xB1, 0xB2, 0x9A, 0x3B,
  0x3B, 0x95, 0xF3, 0x3A, 0x56, 0x48, 0xA3, 0x3B, 0x17, 0x3F, 0x99, 0x3A,
  0xDF, 0x45, 0x83, 0x3B, 0xAF, 0x8E, 0xD0, 0x3A, 0xB2, 0xC9, 0x9C, 0x3B,
  0x11, 0x00, 0x00, 0x00, 0x74, 0x66, 0x6C, 0x2E, 0x70, 0x73, 0x65, 0x75,
  0x64, 0x6F, 0x5F, 0x71, 0x63, 0x6F, 0x6E, 0x73, 0x74, 0x00, 0x00, 0x00,
  0x01, 0x00, 0x00, 0x00, 0x0C, 0x00, 0x00, 0x00, 0x00, 0x00, 0x16, 0x00,
  0x20, 0x00, 0x1C, 0x00, 0x1B, 0x00, 0x14, 0x00, 0x10, 0x00, 0x0C, 0x00,
  0x00, 0x00, 0x00, 0x00, 0x08, 0x00, 0x07, 0x00, 0x16, 0x00, 0x00, 0x00,
  0x00, 0x00, 0x00, 0x01, 0x18, 0x00, 0x00, 0x00, 0x2C, 0x00, 0x00, 0x00,
  0x4C, 0x00, 0x00, 0x00, 0x01, 0x00, 0x00, 0x00, 0x00, 0x00, 0x00, 0x09,
  0x58, 0x00, 0x00, 0x00, 0x02, 0x00, 0x00, 0x00, 0xFF, 0xFF, 0xFF, 0xFF,
  0x06, 0x00, 0x00, 0x00, 0x0C, 0x00, 0x0C, 0x00, 0x00, 0x00, 0x00, 0x00,
  0x08, 0x00, 0x04, 0x00, 0x0C, 0x00, 0x00, 0x00, 0x08, 0x00, 0x00, 0x00,
  0x14, 0x00, 0x00, 0x00, 0x01, 0x00, 0x00, 0x00, 0xEA, 0xFF, 0xFF, 0xFF,
  0xFF, 0xFF, 0xFF, 0xFF, 0x00, 0x00, 0x00, 0x00, 0x01, 0x00, 0x00, 0x00,
  0x26, 0xF4, 0x2E, 0x41, 0x13, 0x00, 0x00, 0x00, 0x73, 0x65, 0x72, 0x76,
  0x69, 0x6E, 0x67, 0x5F, 0x64, 0x65, 0x66, 0x61, 0x75, 0x6C, 0x74, 0x5F,
  0x78, 0x3A, 0x30, 0x00, 0x02, 0x00, 0x00, 0x00, 0x01, 0x00, 0x00, 0x00,
  0x06, 0x00, 0x00, 0x00, 0x02, 0x00, 0x00, 0x00, 0x24, 0x00, 0x00, 0x00,
  0x04, 0x00, 0x00, 0x00, 0xF0, 0xFF, 0xFF, 0xFF, 0x19, 0x00, 0x00, 0x00,
  0x02, 0x00, 0x00, 0x00, 0x00, 0x00, 0x00, 0x19, 0x0C, 0x00, 0x10, 0x00,
  0x0F, 0x00, 0x00, 0x00, 0x08, 0x00, 0x04, 0x00, 0x0C, 0x00, 0x00, 0x00,
  0x09, 0x00, 0x00, 0x00, 0x04, 0x00, 0x00, 0x00, 0x00, 0x00, 0x00, 0x09,
};
const unsigned int esp32s3_ripple_classifier_tflite_len = 4320;
